{
  "version": "1.0",
  "truncation": null,
  "padding": null,
  "added_tokens": [],
  "normalizer": null,
  "pre_tokenizer": {
    "type": "ByteLevel",
    "add_prefix_space": false,
    "trim_offsets": true,
    "use_regex": true
  },
  "post_processor": {
    "type": "ByteLevel",
    "add_prefix_space": true,
    "trim_offsets": true,
    "use_regex": true
  },
  "decoder": {
    "type": "ByteLevel",
    "add_prefix_space": true,
    "trim_offsets": true,
    "use_regex": true
  },
  "model": {
    "type": "BPE",
    "dropout": null,
    "unk_token": null,
    "continuing_subword_prefix": null,
    "end_of_word_suffix": null,
    "fuse_unk": false,
    "byte_fallback": false,
    "ignore_merges": false,
    "vocab": {
      "\u0000": 0,
      "\u0001": 1,
      "\u0002": 2,
      "\u0003": 3,
      "\u0004": 4,
      "\u0005": 5,
      "\u0006": 6,
      "\u0007": 7,
      "\b": 8,
      "\t": 9,
      "\n": 10,
      "\u000b": 11,
      "\f": 12,
      "\r": 13,
      "\u000e": 14,
      "\u000f": 15,
      "\u0010": 16,
      "\u0011": 17,
      "\u0012": 18,
      "\u0013": 19,
      "\u0014": 20,
      "\u0015": 21,
      "\u0016": 22,
      "\u0017": 23,
      "\u0018": 24,
      "\u0019": 25,
      "\u001a": 26,
      "\u001b": 27,
      "\u001c": 28,
      "\u001d": 29,
      "\u001e": 30,
      "\u001f": 31,
      " ": 32,
      "!": 33,
      "\"": 34,
      "#": 35,
      "$": 36,
      "%": 37,
      "&": 38,
      "'": 39,
      "(": 40,
      ")": 41,
      "*": 42,
      "+": 43,
      ",": 44,
      "-": 45,
      ".": 46,
      "/": 47,
      "0": 48,
      "1": 49,
      "2": 50,
      "3": 51,
      "4": 52,
      "5": 53,
      "6": 54,
      "7": 55,
      "8": 56,
      "9": 57,
      ":": 58,
      ";": 59,
      "<": 60,
      "=": 61,
      ">": 62,
      "?": 63,
      "@": 64,
      "A": 65,
      "B": 66,
      "C": 67,
      "D": 68,
      "E": 69,
      "F": 70,
      "G": 71,
      "H": 72,
      "I": 73,
      "J": 74,
      "K": 75,
      "L": 76,
      "M": 77,
      "N": 78,
      "O": 79,
      "P": 80,
      "Q": 81,
      "R": 82,
      "S": 83,
      "T": 84,
      "U": 85,
      "V": 86,
      "W": 87,
      "X": 88,
      "Y": 89,
      "Z": 90,
      "[": 91,
      "\\": 92,
      "]": 93,
      "^": 94,
      "_": 95,
      "`": 96,
      "a": 97,
      "b": 98,
      "c": 99,
      "d": 100,
      "e": 101,
      "f": 102,
      "g": 103,
      "h": 104,
      "i": 105,
      "j": 106,
      "k": 107,
      "l": 108,
      "m": 109,
      "n": 110,
      "o": 111,
      "p": 112,
      "q": 113,
      "r": 114,
      "s": 115,
      "t": 116,
      "u": 117,
      "v": 118,
      "w": 119,
      "x": 120,
      "y": 121,
      "z": 122,
      "{": 123,
      "|": 124,
      "}": 125,
      "~": 126,
      "": 127,
      "\\x80": 128,
      "\\x81": 129,
      "\\x82": 130,
      "\\x83": 131,
      "\\x84": 132,
      "\\x85": 133,
      "\\x86": 134,
      "\\x87": 135,
      "\\x88": 136,
      "\\x89": 137,
      "\\x8a": 138,
      "\\x8b": 139,
      "\\x8c": 140,
      "\\x8d": 141,
      "\\x8e": 142,
      "\\x8f": 143,
      "\\x90": 144,
      "\\x91": 145,
      "\\x92": 146,
      "\\x93": 147,
      "\\x94": 148,
      "\\x95": 149,
      "\\x96": 150,
      "\\x97": 151,
      "\\x98": 152,
      "\\x99": 153,
      "\\x9a": 154,
      "\\x9b": 155,
      "\\x9c": 156,
      "\\x9d": 157,
      "\\x9e": 158,
      "\\x9f": 159,
      "\\xa0": 160,
      "\\xa1": 161,
      "\\xa2": 162,
      "\\xa3": 163,
      "\\xa4": 164,
      "\\xa5": 165,
      "\\xa6": 166,
      "\\xa7": 167,
      "\\xa8": 168,
      "\\xa9": 169,
      "\\xaa": 170,
      "\\xab": 171,
      "\\xac": 172,
      "\\xad": 173,
      "\\xae": 174,
      "\\xaf": 175,
      "\\xb0": 176,
      "\\xb1": 177,
      "\\xb2": 178,
      "\\xb3": 179,
      "\\xb4": 180,
      "\\xb5": 181,
      "\\xb6": 182,
      "\\xb7": 183,
      "\\xb8": 184,
      "\\xb9": 185,
      "\\xba": 186,
      "\\xbb": 187,
      "\\xbc": 188,
      "\\xbd": 189,
      "\\xbe": 190,
      "\\xbf": 191,
      "\\xc0": 192,
      "\\xc1": 193,
      "\\xc2": 194,
      "\\xc3": 195,
      "\\xc4": 196,
      "\\xc5": 197,
      "\\xc6": 198,
      "\\xc7": 199,
      "\\xc8": 200,
      "\\xc9": 201,
      "\\xca": 202,
      "\\xcb": 203,
      "\\xcc": 204,
      "\\xcd": 205,
      "\\xce": 206,
      "\\xcf": 207,
      "\\xd0": 208,
      "\\xd1": 209,
      "\\xd2": 210,
      "\\xd3": 211,
      "\\xd4": 212,
      "\\xd5": 213,
      "\\xd6": 214,
      "\\xd7": 215,
      "\\xd8": 216,
      "\\xd9": 217,
      "\\xda": 218,
      "\\xdb": 219,
      "\\xdc": 220,
      "\\xdd": 221,
      "\\xde": 222,
      "\\xdf": 223,
      "\\xe0": 224,
      "\\xe1": 225,
      "\\xe2": 226,
      "\\xe3": 227,
      "\\xe4": 228,
      "\\xe5": 229,
      "\\xe6": 230,
      "\\xe7": 231,
      "\\xe8": 232,
      "\\xe9": 233,
      "\\xea": 234,
      "\\xeb": 235,
      "\\xec": 236,
      "\\xed": 237,
      "\\xee": 238,
      "\\xef": 239,
      "\\xf0": 240,
      "\\xf1": 241,
      "\\xf2": 242,
      "\\xf3": 243,
      "\\xf4": 244,
      "\\xf5": 245,
      "\\xf6": 246,
      "\\xf7": 247,
      "\\xf8": 248,
      "\\xf9": 249,
      "\\xfa": 250,
      "\\xfb": 251,
      "\\xfc": 252,
      "\\xfd": 253,
      "\\xfe": 254,
      "\\xff": 255,
      " t": 256,
      "he": 257,
      " a": 258,
      "in": 259,
      " s": 260,
      " w": 261,
      " the": 262,
      " o": 263,
      "re": 264,
      " b": 265,
      "ou": 266,
      "ed": 267,
      " m": 268,
      "nd": 269,
      " I": 270,
      "ha": 271,
      "it": 272,
      "er": 273,
      "ing": 274,
      " f": 275,
      "is": 276,
      " to": 277,
      "en": 278,
      "on": 279,
      "or": 280,
      "as": 281,
      " c": 282,
      " of": 283,
      " and": 284,
      " d": 285,
      "ll": 286,
      "at": 287,
      "an": 288,
      "ar": 289,
      " p": 290,
      " n": 291,
      " in": 292,
      "le": 293,
      "om": 294,
      "ot": 295,
      " be": 296,
      " h": 297,
      "ut": 298,
      "ow": 299,
      "es": 300,
      "hat": 301,
      " g": 302,
      " he": 303,
      " ha": 304,
      " l": 305,
      " was": 306,
      "ld": 307,
      "gh": 308,
      "id": 309,
      "ch": 310,
      " th": 311,
      " it": 312,
      "ay": 313,
      " on": 314,
      "ce": 315,
      "se": 316,
      "ent": 317,
      " st": 318,
      "ly": 319,
      "ve": 320,
      "et": 321,
      "st": 322,
      " T": 323,
      " e": 324,
      " y": 325,
      "ght": 326,
      "ir": 327,
      " me": 328,
      "oo": 329,
      "al": 330,
      "ith": 331,
      " re": 332,
      "im": 333,
      " that": 334,
      " as": 335,
      "ould": 336,
      "ro": 337,
      "ad": 338,
      "ion": 339,
      ".\n": 340,
      "her": 341,
      " my": 342,
      "ct": 343,
      " not": 344,
      " with": 345,
      " for": 346,
      " u": 347,
      "ke": 348,
      " you": 349,
      " S": 350,
      " is": 351,
      "ight": 352,
      "\"\n": 353,
      "am": 354,
      "ic": 355,
      "ur": 356,
      " at": 357,
      "..": 358,
      "ac": 359,
      "ter": 360,
      " wh": 361,
      " an": 362,
      " we": 363,
      " The": 364,
      "if": 365,
      " or": 366,
      " but": 367,
      "ver": 368,
      " \"": 369,
      " r": 370,
      "out": 371,
      "ome": 372,
      " had": 373,
      "pp": 374,
      "qu": 375,
      " su": 376,
      " this": 377,
      "red": 378,
      "ard": 379,
      " so": 380,
      "ell": 381,
      " would": 382,
      " his": 383,
      " sh": 384,
      "ine": 385,
      "ra": 386,
      " se": 387,
      " by": 388,
      ".\"\n": 389,
      " P": 390,
      "hen": 391,
      " A": 392,
      " have": 393,
      " fr": 394,
      " sa": 395,
      " H": 396,
      " one": 397,
      "em": 398,
      "ked": 399,
      "irt": 400,
      "ect": 401,
      " him": 402,
      " li": 403,
      " ab": 404,
      "ation": 405,
      "hing": 406,
      "the": 407,
      " R": 408,
      " le": 409,
      "ss": 410,
      " W": 411,
      "cu": 412,
      "ill": 413,
      "'t": 414,
      "art": 415,
      "all": 416,
      ",\n": 417,
      "own": 418,
      "ore": 419,
      " all": 420,
      " k": 421,
      " go": 422,
      "hirt": 423,
      "and": 424,
      " out": 425,
      "ame": 426,
      "ain": 427,
      " if": 428,
      " no": 429,
      " do": 430,
      " they": 431,
      "ool": 432,
      "un": 433,
      "to": 434,
      " up": 435,
      " Red": 436,
      " ne": 437,
      " K": 438,
      " from": 439,
      " Shirt": 440,
      " wor": 441,
      "ong": 442,
      " there": 443,
      " said": 444,
      "ri": 445,
      "ant": 446,
      " B": 447,
      " any": 448,
      "ud": 449,
      "ind": 450,
      " whi": 451,
      "ab": 452,
      "ound": 453,
      " about": 454,
      " them": 455,
      "cup": 456,
      "ak": 457,
      " de": 458,
      " te": 459,
      " M": 460,
      "ake": 461,
      "cupine": 462,
      "ig": 463,
      " were": 464,
      "orcupine": 465,
      "il": 466,
      "chool": 467,
      " ro": 468,
      "ood": 469,
      " are": 470,
      "ive": 471,
      " like": 472,
      "yo": 473,
      " hou": 474,
      "'s": 475,
      "one": 476,
      "us": 477,
      "el": 478,
      "ul": 479,
      "ack": 480,
      "op": 481,
      ",\"": 482,
      "th": 483,
      "acher": 484,
      "um": 485,
      "ang": 486,
      " fa": 487,
      "ag": 488,
      " school": 489,
      " j": 490,
      "te": 491,
      "ok": 492,
      "ess": 493,
      "ust": 494,
      "ers": 495,
      "....": 496,
      " C": 497,
      "ther": 498,
      "han": 499,
      " when": 500,
      " sp": 501,
      " man": 502,
      " can": 503,
      "ough": 504,
      " who": 505,
      " get": 506,
      " did": 507,
      " po": 508,
      "ci": 509,
      " al": 510,
      "ist": 511,
      " com": 512,
      "lf": 513,
      "au": 514,
      " Porcupine": 515,
      " which": 516,
      "ven": 517,
      " af": 518,
      "wn": 519,
      "ass": 520,
      "ber": 521,
      " ex": 522,
      "ous": 523,
      "est": 524,
      "lo": 525,
      " tr": 526,
      "ellow": 527,
      " say": 528,
      "ought": 529,
      " room": 530,
      " some": 531,
      "--": 532,
      " O": 533,
      "ate": 534,
      " v": 535,
      "hed": 536,
      "ap": 537,
      " tw": 538,
      " bec": 539,
      "ree": 540,
      "ject": 541,
      "ks": 542,
      " con": 543,
      " been": 544,
      "ents": 545,
      "ide": 546,
      " could": 547,
      " G": 548,
      "ep": 549,
      " pro": 550,
      "nt": 551,
      " house": 552,
      " ag": 553,
      " If": 554,
      " kn": 555,
      " fellow": 556,
      " what": 557,
      "way": 558,
      "ish": 559,
      " am": 560,
      "ite": 561,
      "nder": 562,
      "ime": 563,
      " pr": 564,
      " teacher": 565,
      "are": 566,
      " bo": 567,
      " she": 568,
      " N": 569,
      "ice": 570,
      "ast": 571,
      "ure": 572,
      "ie": 573,
      " such": 574,
      "uten": 575,
      "utenber": 576,
      "utenberg": 577,
      " qu": 578,
      "lown": 579,
      " wr": 580,
      "pt": 581,
      " He": 582,
      " stud": 583,
      "here": 584,
      " more": 585,
      "ry": 586,
      "tter": 587,
      " Y": 588,
      " may": 589,
      "ity": 590,
      " loo": 591,
      " other": 592,
      "his": 593,
      " Pro": 594,
      " will": 595,
      " It": 596,
      "ort": 597,
      " should": 598,
      "very": 599,
      "we": 600,
      " pl": 601,
      "ash": 602,
      ".\"": 603,
      " app": 604,
      " day": 605,
      "urn": 606,
      "po": 607,
      " her": 608,
      "  ": 609,
      "not": 610,
      "ck": 611,
      " un": 612,
      "hi": 613,
      "ving": 614,
      " old": 615,
      " time": 616,
      "\"T": 617,
      " way": 618,
      "able": 619,
      "?\"\n": 620,
      " Clown": 621,
      " only": 622,
      "ub": 623,
      "ach": 624,
      " off": 625,
      " than": 626,
      "ally": 627,
      " their": 628,
      "be": 629,
      "king": 630,
      "other": 631,
      "ary": 632,
      "ans": 633,
      "ated": 634,
      "self": 635,
      " going": 636,
      "uch": 637,
      "oll": 638,
      " back": 639,
      "iyo": 640,
      "-t": 641,
      "ance": 642,
      "ade": 643,
      " Project": 644,
      "sp": 645,
      " two": 646,
      " thought": 647,
      "so": 648,
      " right": 649,
      " head": 650,
      "ved": 651,
      " D": 652,
      " pre": 653,
      " see": 654,
      " us": 655,
      " students": 656,
      "cip": 657,
      " don": 658,
      " night": 659,
      "incip": 660,
      " Kiyo": 661,
      "pl": 662,
      "ared": 663,
      " Gutenberg": 664,
      " co": 665,
      " how": 666,
      "omet": 667,
      "ff": 668,
      "\"I": 669,
      ",--": 670,
      " asked": 671,
      "incipal": 672,
      "ever": 673,
      " ac": 674,
      " F": 675,
      " make": 676,
      "itt": 677,
      " might": 678,
      "ge": 679,
      "led": 680,
      " after": 681,
      "ign": 682,
      " gr": 683,
      " made": 684,
      "dd": 685,
      " know": 686,
      " come": 687,
      " br": 688,
      "thing": 689,
      " But": 690,
      " mat": 691,
      " On": 692,
      "ory": 693,
      "cl": 694,
      " E": 695,
      "ble": 696,
      "og": 697,
      " your": 698,
      "ull": 699,
      " work": 700,
      "ear": 701,
      " three": 702,
      "ied": 703,
      "but": 704,
      "The": 705,
      "pe": 706,
      "ace": 707,
      " start": 708,
      "ick": 709,
      " over": 710,
      "our": 711,
      " much": 712,
      " want": 713,
      "imp": 714,
      " part": 715,
      "ho": 716,
      "ink": 717,
      "ence": 718,
      " down": 719,
      " even": 720,
      " principal": 721,
      "ling": 722,
      "ount": 723,
      "ause": 724,
      " cl": 725,
      " bl": 726,
      "-tm": 727,
      "omething": 728,
      " into": 729,
      "orm": 730,
      "okyo": 731,
      " dis": 732,
      " fe": 733,
      " face": 734,
      "......": 735,
      "ress": 736,
      "ment": 737,
      "ire": 738,
      " ar": 739,
      "ty": 740,
      " mo": 741,
      "reat": 742,
      " fir": 743,
      "per": 744,
      " our": 745,
      "co": 746,
      " then": 747,
      " told": 748,
      "ings": 749,
      " take": 750,
      " beg": 751,
      "ner": 752,
      "ition": 753,
      "ose": 754,
      " own": 755,
      " again": 756,
      " seem": 757,
      "ise": 758,
      " wat": 759,
      "\"W": 760,
      " far": 761,
      "aking": 762,
      "fore": 763,
      "ady": 764,
      "-s": 765,
      "less": 766,
      " ret": 767,
      " sha": 768,
      " came": 769,
      "ger": 770,
      " good": 771,
      "ather": 772,
      "ark": 773,
      "row": 774,
      " ke": 775,
      "'m": 776,
      " has": 777,
      "ath": 778,
      "pped": 779,
      " went": 780,
      " tell": 781,
      "quash": 782,
      " en": 783,
      " first": 784,
      " hot": 785,
      "iz": 786,
      " away": 787,
      " something": 788,
      " rem": 789,
      " town": 790,
      " sm": 791,
      " This": 792,
      " better": 793,
      " Then": 794,
      "was": 795,
      "of": 796,
      "bard": 797,
      " L": 798,
      "li": 799,
      "fe": 800,
      " Tokyo": 801,
      " long": 802,
      "ily": 803,
      " sure": 804,
      " looked": 805,
      "ubbard": 806,
      "ction": 807,
      "ord": 808,
      " many": 809,
      "ious": 810,
      " too": 811,
      " here": 812,
      "os": 813,
      " under": 814,
      "ase": 815,
      "ng": 816,
      "ped": 817,
      "od": 818,
      "me": 819,
      " just": 820,
      " now": 821,
      "ince": 822,
      " heard": 823,
      " kind": 824,
      " They": 825,
      " before": 826,
      "hy": 827,
      " In": 828,
      " ent": 829,
      " board": 830,
      "!\"": 831,
      "ward": 832,
      " being": 833,
      " well": 834,
      "erm": 835,
      "ried": 836,
      " wrong": 837,
      "aid": 838,
      "xt": 839,
      " return": 840,
      "ited": 841,
      " yen": 842,
      " matter": 843,
      " call": 844,
      " tal": 845,
      " You": 846,
      "ced": 847,
      "ised": 848,
      " cha": 849,
      "ons": 850,
      " same": 851,
      " once": 852,
      "day": 853,
      "ft": 854,
      " sw": 855,
      " because": 856,
      " think": 857,
      " where": 858,
      " No": 859,
      " Hubbard": 860,
      " Squash": 861,
      " cop": 862,
      "with": 863,
      "ered": 864,
      "ollow": 865,
      " place": 866,
      "idd": 867,
      "cess": 868,
      " show": 869,
      "isha": 870,
      " ra": 871,
      " letter": 872,
      "ne": 873,
      "ves": 874,
      "ating": 875,
      "rang": 876,
      " aff": 877,
      " hand": 878,
      " sc": 879,
      " pers": 880,
      "int": 881,
      "pr": 882,
      "side": 883,
      "fter": 884,
      " saying": 885,
      " lau": 886,
      "that": 887,
      " without": 888,
      "ron": 889,
      "air": 890,
      "lect": 891,
      " What": 892,
      "elt": 893,
      " while": 894,
      "oga": 895,
      "aper": 896,
      " pe": 897,
      "oy": 898,
      " sat": 899,
      "ies": 900,
      " add": 901,
      " days": 902,
      " spe": 903,
      " ho": 904,
      " ans": 905,
      " har": 906,
      " When": 907,
      " anything": 908,
      "pen": 909,
      "]\n": 910,
      "tain": 911,
      " must": 912,
      " new": 913,
      "lic": 914,
      " vo": 915,
      "hile": 916,
      "get": 917,
      " As": 918,
      " very": 919,
      "'re": 920,
      " every": 921,
      "ave": 922,
      "?\"": 923,
      "adger": 924,
      " Koga": 925,
      " Mr": 926,
      "rough": 927,
      "ult": 928,
      " follow": 929,
      "ting": 930,
      "ife": 931,
      "iddle": 932,
      "ful": 933,
      "ank": 934,
      " So": 935,
      " seemed": 936,
      " And": 937,
      "ix": 938,
      " set": 939,
      " care": 940,
      " res": 941,
      " never": 942,
      " found": 943,
      " lo": 944,
      "cid": 945,
      "ined": 946,
      " class": 947,
      " myself": 948,
      "aw": 949,
      " wom": 950,
      "ations": 951,
      " left": 952,
      " We": 953,
      " teachers": 954,
      "\"Y": 955,
      "na": 956,
      "ont": 957,
      " des": 958,
      " those": 959,
      "ired": 960,
      " sen": 961,
      "ying": 962,
      " these": 963,
      "az": 964,
      " There": 965,
      "cept": 966,
      " dang": 967,
      " U": 968,
      "\"H": 969,
      "bod": 970,
      "body": 971,
      " having": 972,
      "alary": 973,
      " watch": 974,
      " give": 975,
      "age": 976,
      " its": 977,
      " appe": 978,
      "ue": 979,
      " count": 980,
      " hard": 981,
      " bel": 982,
      "ott": 983,
      " dist": 984,
      "\"S": 985,
      " Mad": 986,
      "-n": 987,
      "ribut": 988,
      "ged": 989,
      " att": 990,
      "fere": 991,
      "ither": 992,
      " upon": 993,
      " tem": 994,
      " person": 995,
      "ning": 996,
      " che": 997,
      "arly": 998,
      "oney": 999,
      " soon": 1000,
      "ement": 1001,
      " (": 1002,
      " trans": 1003,
      " exp": 1004,
      " ser": 1005,
      " reg": 1006,
      "ason": 1007,
      " saw": 1008,
      " next": 1009,
      "oot": 1010,
      " half": 1011,
      " took": 1012,
      " bad": 1013,
      " hour": 1014,
      " salary": 1015,
      " began": 1016,
      "right": 1017,
      "onna": 1018,
      "-san": 1019,
      " works": 1020,
      " J": 1021,
      "form": 1022,
      "ical": 1023,
      " tra": 1024,
      "man": 1025,
      " nothing": 1026,
      " still": 1027,
      "ears": 1028,
      " supp": 1029,
      " turn": 1030,
      " felt": 1031,
      " woman": 1032,
      " started": 1033,
      "ouble": 1034,
      "ura": 1035,
      "ishing": 1036,
      ":\n": 1037,
      "lectron": 1038,
      "lectronic": 1039,
      "ook": 1040,
      " copy": 1041,
      " full": 1042,
      "cond": 1043,
      "mat": 1044,
      " middle": 1045,
      " look": 1046,
      " comm": 1047,
      "wered": 1048,
      " became": 1049,
      " fellows": 1050,
      "would": 1051,
      " got": 1052,
      " gl": 1053,
      " gu": 1054,
      " keep": 1055,
      " ge": 1056,
      " Madonna": 1057,
      "iter": 1058,
      "ished": 1059,
      " underst": 1060,
      " stra": 1061,
      "sid": 1062,
      " country": 1063,
      "ople": 1064,
      " prov": 1065,
      " put": 1066,
      "no": 1067,
      "'ll": 1068,
      " sle": 1069,
      "range": 1070,
      " She": 1071,
      "pos": 1072,
      " mind": 1073,
      " pass": 1074,
      " through": 1075,
      " quite": 1076,
      " ind": 1077,
      " boarding": 1078,
      "teacher": 1079,
      "ple": 1080,
      "Porcupine": 1081,
      " ple": 1082,
      " geisha": 1083,
      "    ": 1084,
      "ost": 1085,
      "ense": 1086,
      "No": 1087,
      "ible": 1088,
      " read": 1089,
      " red": 1090,
      "ention": 1091,
      "ened": 1092,
      "!\"\n": 1093,
      " ref": 1094,
      " ad": 1095,
      " fl": 1096,
      " stay": 1097,
      "up": 1098,
      " round": 1099,
      " cle": 1100,
      " open": 1101,
      " ob": 1102,
      "tend": 1103,
      " find": 1104,
      " per": 1105,
      " called": 1106,
      " sur": 1107,
      "rew": 1108,
      " paper": 1109,
      " Badger": 1110,
      " meet": 1111,
      "iss": 1112,
      "\"That": 1113,
      "erms": 1114,
      "TE": 1115,
      "itten": 1116,
      "ably": 1117,
      "ness": 1118,
      " cannot": 1119,
      " simp": 1120,
      "con": 1121,
      " reason": 1122,
      "you": 1123,
      " home": 1124,
      "by": 1125,
      " fight": 1126,
      "ittle": 1127,
      " things": 1128,
      " eas": 1129,
      " imp": 1130,
      "ressed": 1131,
      " mean": 1132,
      " appeared": 1133,
      " nat": 1134,
      " hel": 1135,
      "ret": 1136,
      "aken": 1137,
      " straight": 1138,
      " affair": 1139,
      "iting": 1140,
      " ed": 1141,
      " since": 1142,
      "log": 1143,
      " pay": 1144,
      " front": 1145,
      "my": 1146,
      " voice": 1147,
      "ready": 1148,
      " fool": 1149,
      "oundation": 1150,
      " electronic": 1151,
      " terms": 1152,
      " mar": 1153,
      "apan": 1154,
      "any": 1155,
      " resp": 1156,
      " end": 1157,
      "app": 1158,
      "what": 1159,
      "str": 1160,
      "rap": 1161,
      "ial": 1162,
      "icul": 1163,
      " acc": 1164,
      "oth": 1165,
      " second": 1166,
      " flo": 1167,
      " six": 1168,
      " feet": 1169,
      "br": 1170,
      "iet": 1171,
      " little": 1172,
      "les": 1173,
      " money": 1174,
      " decl": 1175,
      " ey": 1176,
      " comp": 1177,
      "aring": 1178,
      " agre": 1179,
      "where": 1180,
      " St": 1181,
      " stre": 1182,
      "ex": 1183,
      "ract": 1184,
      " int": 1185,
      " dire": 1186,
      " become": 1187,
      " hon": 1188,
      " consid": 1189,
      "ertain": 1190,
      "now": 1191,
      " sl": 1192,
      "itor": 1193,
      "gg": 1194,
      " jum": 1195,
      " bu": 1196,
      " thing": 1197,
      " answered": 1198,
      "oes": 1199,
      "ya": 1200,
      " That": 1201,
      "ize": 1202,
      "ond": 1203,
      "act": 1204,
      " eff": 1205,
      " bang": 1206,
      "about": 1207,
      " bed": 1208,
      "orrow": 1209,
      "ung": 1210,
      " To": 1211,
      " kept": 1212,
      " wal": 1213,
      " bath": 1214,
      " dra": 1215,
      "\"A": 1216,
      "rings": 1217,
      "hopp": 1218,
      " resign": 1219,
      " din": 1220,
      " lady": 1221,
      ".E": 1222,
      " use": 1223,
      "lish": 1224,
      "ors": 1225,
      " written": 1226,
      "ene": 1227,
      "iv": 1228,
      " dif": 1229,
      " ste": 1230,
      " story": 1231,
      "com": 1232,
      "res": 1233,
      "ently": 1234,
      " fact": 1235,
      "hes": 1236,
      "ways": 1237,
      " why": 1238,
      " though": 1239,
      " str": 1240,
      "onder": 1241,
      "head": 1242,
      " cour": 1243,
      " mon": 1244,
      " sk": 1245,
      " belie": 1246,
      " let": 1247,
      "fer": 1248,
      " requ": 1249,
      " line": 1250,
      "room": 1251,
      "-day": 1252,
      " done": 1253,
      " does": 1254,
      " One": 1255,
      " dango": 1256,
      "asshopp": 1257,
      " consider": 1258,
      " dinner": 1259,
      " Foundation": 1260,
      "**": 1261,
      "empt": 1262,
      "ese": 1263,
      " word": 1264,
      "rest": 1265,
      " enough": 1266,
      " great": 1267,
      " name": 1268,
      " pub": 1269,
      " manner": 1270,
      "wer": 1271,
      "ict": 1272,
      "iness": 1273,
      " himself": 1274,
      " people": 1275,
      "ew": 1276,
      " cor": 1277,
      "estion": 1278,
      " big": 1279,
      "ee": 1280,
      " ri": 1281,
      "ides": 1282,
      " brother": 1283,
      " heart": 1284,
      "ected": 1285,
      "eed": 1286,
      " others": 1287,
      "sol": 1288,
      "ted": 1289,
      " eyes": 1290,
      " trouble": 1291,
      " teach": 1292,
      " boat": 1293,
      " four": 1294,
      " already": 1295,
      "rom": 1296,
      "ghed": 1297,
      " squ": 1298,
      " pol": 1299,
      "ces": 1300,
      " Hott": 1301,
      " leave": 1302,
      " distribut": 1303,
      "aster": 1304,
      "CH": 1305,
      "uc": 1306,
      " im": 1307,
      " however": 1308,
      "there": 1309,
      "apanese": 1310,
      " last": 1311,
      " cr": 1312,
      "ility": 1313,
      " simple": 1314,
      " life": 1315,
      "-c": 1316,
      " regard": 1317,
      " fin": 1318,
      "ual": 1319,
      " means": 1320,
      " stand": 1321,
      "atch": 1322,
      " short": 1323,
      "ned": 1324,
      " seen": 1325,
      " happ": 1326,
      "-k": 1327,
      " against": 1328,
      "him": 1329,
      "amed": 1330,
      " stood": 1331,
      " gra": 1332,
      " mother": 1333,
      " fish": 1334,
      " water": 1335,
      "ail": 1336,
      "cei": 1337,
      " rather": 1338,
      " ins": 1339,
      " feel": 1340,
      " also": 1341,
      " ord": 1342,
      " coming": 1343,
      "ics": 1344,
      " either": 1345,
      "nce": 1346,
      " '": 1347,
      " kid": 1348,
      " laughed": 1349,
      "like": 1350,
      " Ar": 1351,
      "gr": 1352,
      " Hotta": 1353,
      " talk": 1354,
      "gether": 1355,
      " Sir": 1356,
      " pun": 1357,
      "Pro": 1358,
      "ats": 1359,
      "most": 1360,
      " rep": 1361,
      " gi": 1362,
      "isf": 1363,
      "bably": 1364,
      "akes": 1365,
      " Not": 1366,
      "ny": 1367,
      " appear": 1368,
      "mp": 1369,
      "cha": 1370,
      " act": 1371,
      "bed": 1372,
      "ief": 1373,
      "uff": 1374,
      " apo": 1375,
      " met": 1376,
      " returned": 1377,
      " sound": 1378,
      "usiness": 1379,
      " laugh": 1380,
      " clear": 1381,
      " need": 1382,
      "fess": 1383,
      "ested": 1384,
      " inv": 1385,
      " accept": 1386,
      "under": 1387,
      ";\n": 1388,
      " surpr": 1389,
      "de": 1390,
      " train": 1391,
      " hotel": 1392,
      " sleep": 1393,
      " dr": 1394,
      " hold": 1395,
      "lock": 1396,
      "pura": 1397,
      " springs": 1398,
      " ......": 1399,
      " agreement": 1400,
      " Dar": 1401,
      " rest": 1402,
      "clud": 1403,
      "ator": 1404,
      "av": 1405,
      " orig": 1406,
      " origin": 1407,
      " el": 1408,
      " nor": 1409,
      " pres": 1410,
      " understand": 1411,
      " taken": 1412,
      " light": 1413,
      "ener": 1414,
      "some": 1415,
      " brought": 1416,
      "raph": 1417,
      " most": 1418,
      "oke": 1419,
      "-w": 1420,
      " unt": 1421,
      " father": 1422,
      " used": 1423,
      " eat": 1424,
      " years": 1425,
      " While": 1426,
      " chan": 1427,
      " sudd": 1428,
      " sudden": 1429,
      " apolog": 1430,
      " sett": 1431,
      " thin": 1432,
      " My": 1433,
      " ten": 1434,
      "imes": 1435,
      "for": 1436,
      "oud": 1437,
      "When": 1438,
      " det": 1439,
      " live": 1440,
      " oc": 1441,
      " five": 1442,
      " cont": 1443,
      " help": 1444,
      " wa": 1445,
      " passed": 1446,
      " run": 1447,
      " making": 1448,
      " strange": 1449,
      " taking": 1450,
      " each": 1451,
      "\"You": 1452,
      " another": 1453,
      "\"Say": 1454,
      "\"The": 1455,
      "ates": 1456,
      " pleas": 1457,
      "asshoppers": 1458,
      " mom": 1459,
      " moment": 1460,
      "entle": 1461,
      "nglish": 1462,
      "CHA": 1463,
      " original": 1464,
      "ions": 1465,
      "uring": 1466,
      " public": 1467,
      "uct": 1468,
      "uck": 1469,
      " question": 1470,
      "ai": 1471,
      "cy": 1472,
      "ek": 1473,
      " floor": 1474,
      " car": 1475,
      "ouse": 1476,
      " side": 1477,
      "-ya": 1478,
      " certain": 1479,
      "hys": 1480,
      "-d": 1481,
      "igh": 1482,
      "agin": 1483,
      "weet": 1484,
      " poor": 1485,
      " decid": 1486,
      "ually": 1487,
      " business": 1488,
      "pro": 1489,
      "plain": 1490,
      " stop": 1491,
      "!\n": 1492,
      " How": 1493,
      "\"What": 1494,
      "can": 1495,
      " Un": 1496,
      "ps": 1497,
      "und": 1498,
      "-night": 1499,
      " meeting": 1500,
      "edo": 1501,
      " raise": 1502,
      "Gutenberg": 1503,
      " Darling": 1504,
      "ume": 1505,
      " English": 1506,
      "TER": 1507,
      "ading": 1508,
      " transl": 1509,
      " able": 1510,
      "ssible": 1511,
      " satisf": 1512,
      " wanted": 1513,
      " sub": 1514,
      " case": 1515,
      "ific": 1516,
      "iterary": 1517,
      " maid": 1518,
      " inc": 1519,
      " pos": 1520,
      " position": 1521,
      " pat": 1522,
      "ured": 1523,
      "orry": 1524,
      " account": 1525,
      " both": 1526,
      " frie": 1527,
      " friend": 1528,
      "this": 1529,
      " always": 1530,
      " particul": 1531,
      "What": 1532,
      " small": 1533,
      "enty": 1534,
      "ushed": 1535,
      " mis": 1536,
      "ully": 1537,
      " recei": 1538,
      "You": 1539,
      " yet": 1540,
      " gave": 1541,
      "But": 1542,
      "had": 1543,
      " answer": 1544,
      " abs": 1545,
      "ile": 1546,
      "cket": 1547,
      " nood": 1548,
      " course": 1549,
      " form": 1550,
      " everything": 1551,
      "ection": 1552,
      "If": 1553,
      "part": 1554,
      " sing": 1555,
      " sit": 1556,
      " pur": 1557,
      "ip": 1558,
      " fishing": 1559,
      " eh": 1560,
      " par": 1561,
      " together": 1562,
      "He": 1563,
      " whe": 1564,
      " whether": 1565,
      " bra": 1566,
      "\"Yes": 1567,
      " punish": 1568,
      "Shirt": 1569,
      " Yedo": 1570,
      " farew": 1571,
      " farewell": 1572,
      " dance": 1573,
      " less": 1574,
      "ural": 1575,
      " def": 1576,
      " attempt": 1577,
      "ween": 1578,
      " sign": 1579,
      " sy": 1580,
      "ferent": 1581,
      " least": 1582,
      "ser": 1583,
      "ob": 1584,
      "nding": 1585,
      " sorry": 1586,
      " jumped": 1587,
      " jan": 1588,
      " janitor": 1589,
      "ized": 1590,
      " toward": 1591,
      " mor": 1592,
      "aving": 1593,
      " bit": 1594,
      "\"This": 1595,
      " remark": 1596,
      " fut": 1597,
      " wonder": 1598,
      " fun": 1599,
      "Then": 1600,
      " dec": 1601,
      " whom": 1602,
      " didn": 1603,
      " rec": 1604,
      "bec": 1605,
      "\"If": 1606,
      " knew": 1607,
      "after": 1608,
      " thus": 1609,
      " isn": 1610,
      " sight": 1611,
      "med": 1612,
      "[F": 1613,
      "uss": 1614,
      "cident": 1615,
      "them": 1616,
      " fif": 1617,
      " draw": 1618,
      " hear": 1619,
      " writing": 1620,
      " getting": 1621,
      "sh": 1622,
      "ference": 1623,
      " raised": 1624,
      "they": 1625,
      "ax": 1626,
      " fine": 1627,
      "sel": 1628,
      " Nobe": 1629,
      " Nobeok": 1630,
      " Nobeoka": 1631,
      "ormal": 1632,
      " eB": 1633,
      "icense": 1634,
      "00": 1635,
      " best": 1636,
      "wor": 1637,
      "fic": 1638,
      "terest": 1639,
      " remar": 1640,
      "bl": 1641,
      "arted": 1642,
      " dark": 1643,
      " young": 1644,
      "ush": 1645,
      " bet": 1646,
      "outh": 1647,
      "house": 1648,
      "aught": 1649,
      " phys": 1650,
      " strong": 1651,
      " fur": 1652,
      " roll": 1653,
      "cove": 1654,
      "chief": 1655,
      "awa": 1656,
      " followed": 1657,
      " fond": 1658,
      " future": 1659,
      "ird": 1660,
      "fully": 1661,
      " effort": 1662,
      "After": 1663,
      "oward": 1664,
      " really": 1665,
      " among": 1666,
      " around": 1667,
      " compl": 1668,
      " gaz": 1669,
      " bow": 1670,
      "ater": 1671,
      " insist": 1672,
      " turned": 1673,
      "hel": 1674,
      "rem": 1675,
      " hours": 1676,
      " decided": 1677,
      "ys": 1678,
      " month": 1679,
      "-a": 1680,
      " adv": 1681,
      " believe": 1682,
      " teaching": 1683,
      " easy": 1684,
      " direction": 1685,
      "ooked": 1686,
      " war": 1687,
      " unless": 1688,
      "have": 1689,
      " square": 1690,
      "vil": 1691,
      " quiet": 1692,
      " hung": 1693,
      " goes": 1694,
      " paid": 1695,
      " shall": 1696,
      "\"No": 1697,
      " punishment": 1698,
      "pose": 1699,
      " sweet": 1700,
      "'ve": 1701,
      "\"Well": 1702,
      " gentle": 1703,
      " normal": 1704,
      "agraph": 1705,
      "chive": 1706,
      "chan": 1707,
      " includ": 1708,
      "ww": 1709,
      "org": 1710,
      "tem": 1711,
      "AR": 1712,
      " TH": 1713,
      " equ": 1714,
      " tone": 1715,
      " possible": 1716,
      " becom": 1717,
      " Japanese": 1718,
      "vers": 1719,
      " following": 1720,
      " pain": 1721,
      " whole": 1722,
      "wr": 1723,
      " serious": 1724,
      " nar": 1725,
      " tired": 1726,
      "In": 1727,
      " play": 1728,
      " prom": 1729,
      " game": 1730,
      " Some": 1731,
      " happened": 1732,
      " cut": 1733,
      " twenty": 1734,
      " door": 1735,
      " morning": 1736,
      "hind": 1737,
      " bre": 1738,
      " inside": 1739,
      "ove": 1740,
      "alth": 1741,
      "uk": 1742,
      "arge": 1743,
      "amb": 1744,
      " dam": 1745,
      " worry": 1746,
      "ative": 1747,
      " expected": 1748,
      " fam": 1749,
      " pra": 1750,
      " pocket": 1751,
      "ooks": 1752,
      "ched": 1753,
      " sil": 1754,
      "ol": 1755,
      " fav": 1756,
      " else": 1757,
      " high": 1758,
      " real": 1759,
      " along": 1760,
      " med": 1761,
      "hik": 1762,
      "hemat": 1763,
      "hematics": 1764,
      " list": 1765,
      " sick": 1766,
      "oint": 1767,
      "[Foot": 1768,
      "[Footnot": 1769,
      "[Footnote": 1770,
      ".]\n": 1771,
      "night": 1772,
      "ses": 1773,
      "ior": 1774,
      " says": 1775,
      " mouth": 1776,
      "how": 1777,
      "ming": 1778,
      " clo": 1779,
      " cur": 1780,
      "ging": 1781,
      " suddenly": 1782,
      "-ah": 1783,
      "amp": 1784,
      " black": 1785,
      "ross": 1786,
      " fac": 1787,
      "selves": 1788,
      "iew": 1789,
      "ission": 1790,
      " copyright": 1791,
      " paragraph": 1792,
      " Archive": 1793,
      " donations": 1794,
      "Project": 1795,
      " cost": 1796,
      ".org": 1797,
      "LI": 1798,
      "uced": 1799,
      " suc": 1800,
      "yle": 1801,
      " force": 1802,
      "joy": 1803,
      "ouch": 1804,
      "tr": 1805,
      "It": 1806,
      " trad": 1807,
      " present": 1808,
      " ext": 1809,
      "ased": 1810,
      "redit": 1811,
      " fault": 1812,
      "ib": 1813,
      "-m": 1814,
      "urd": 1815,
      " tried": 1816,
      "time": 1817,
      " pret": 1818,
      " spee": 1819,
      "ower": 1820,
      " words": 1821,
      "CHAP": 1822,
      "CHAPTER": 1823,
      "school": 1824,
      " ask": 1825,
      " doing": 1826,
      "ately": 1827,
      " until": 1828,
      "bout": 1829,
      " tree": 1830,
      "call": 1831,
      "amash": 1832,
      "amashir": 1833,
      "amashiro": 1834,
      "ste": 1835,
      " behind": 1836,
      "old": 1837,
      " wall": 1838,
      "itory": 1839,
      " rolled": 1840,
      " move": 1841,
      " apologize": 1842,
      " large": 1843,
      "amboo": 1844,
      "su": 1845,
      " settled": 1846,
      "\"He": 1847,
      "wo": 1848,
      " thinking": 1849,
      "used": 1850,
      "ified": 1851,
      " almost": 1852,
      " tre": 1853,
      " treat": 1854,
      " noodle": 1855,
      " note": 1856,
      " All": 1857,
      " beat": 1858,
      " object": 1859,
      " seems": 1860,
      " ide": 1861,
      "Yes": 1862,
      "ows": 1863,
      " remain": 1864,
      " begin": 1865,
      "ught": 1866,
      "ments": 1867,
      " alone": 1868,
      "spect": 1869,
      " mathematics": 1870,
      " rough": 1871,
      " outside": 1872,
      " comes": 1873,
      "back": 1874,
      " wind": 1875,
      "sed": 1876,
      " wouldn": 1877,
      "eer": 1878,
      "inut": 1879,
      "from": 1880,
      " repl": 1881,
      " narrow": 1882,
      " incident": 1883,
      " air": 1884,
      " sea": 1885,
      "ts": 1886,
      " surprised": 1887,
      " tea": 1888,
      "Red": 1889,
      " talking": 1890,
      " boss": 1891,
      "que": 1892,
      " pict": 1893,
      "irty": 1894,
      " ce": 1895,
      " lim": 1896,
      " Why": 1897,
      " point": 1898,
      " law": 1899,
      "ciated": 1900,
      " moon": 1901,
      "ircu": 1902,
      "got": 1903,
      " Is": 1904,
      " hands": 1905,
      " honor": 1906,
      "aut": 1907,
      "rge": 1908,
      " state": 1909,
      " Literary": 1910,
      ".F": 1911,
      "This": 1912,
      "line": 1913,
      ".g": 1914,
      ".gutenberg": 1915,
      " OF": 1916,
      "EN": 1917,
      "racter": 1918,
      " bene": 1919,
      " Even": 1920,
      "oub": 1921,
      " makes": 1922,
      " interest": 1923,
      "ope": 1924,
      "ms": 1925,
      " respons": 1926,
      " fore": 1927,
      " somewhat": 1928,
      " honest": 1929,
      "ock": 1930,
      "irit": 1931,
      " held": 1932,
      " added": 1933,
      "fu": 1934,
      "aded": 1935,
      "als": 1936,
      "att": 1937,
      "tern": 1938,
      " personal": 1939,
      " ass": 1940,
      " With": 1941,
      "tic": 1942,
      "Tokyo": 1943,
      " shout": 1944,
      " pretty": 1945,
      "umb": 1946,
      " early": 1947,
      "opped": 1948,
      " further": 1949,
      " fre": 1950,
      "esides": 1951,
      " bamboo": 1952,
      " ir": 1953,
      "more": 1954,
      " living": 1955,
      " received": 1956,
      " lived": 1957,
      " meant": 1958,
      " coward": 1959,
      "position": 1960,
      " loc": 1961,
      "iled": 1962,
      " tender": 1963,
      " ch": 1964,
      " After": 1965,
      "cer": 1966,
      " favor": 1967,
      "who": 1968,
      " liked": 1969,
      "rance": 1970,
      " pri": 1971,
      "kisha": 1972,
      " study": 1973,
      " order": 1974,
      " afterward": 1975,
      " greatly": 1976,
      " unable": 1977,
      "go": 1978,
      " wait": 1979,
      "eping": 1980,
      "iding": 1981,
      " forty": 1982,
      " sky": 1983,
      " office": 1984,
      "will": 1985,
      "\"D": 1986,
      "wel": 1987,
      " station": 1988,
      "bo": 1989,
      "hot": 1990,
      "such": 1991,
      " loud": 1992,
      " aw": 1993,
      "land": 1994,
      "?\n": 1995,
      " respect": 1996,
      "ances": 1997,
      "<|image|>": 1998,
      "<|begin_of_image|>": 1999,
      "<|end_of_image|>": 2000,
      "<|pad|>": 2001
    },
    "merges": [
    ]
  }
}
