{
  "version": "1.0",
  "truncation": null,
  "padding": null,
  "added_tokens": [],
  "normalizer": null,
  "pre_tokenizer": {
    "type": "ByteLevel",
    "add_prefix_space": false,
    "trim_offsets": true,
    "use_regex": true
  },
  "post_processor": {
    "type": "ByteLevel",
    "add_prefix_space": true,
    "trim_offsets": true,
    "use_regex": true
  },
  "decoder": {
    "type": "ByteLevel",
    "add_prefix_space": true,
    "trim_offsets": true,
    "use_regex": true
  },
  "model": {
    "type": "BPE",
    "dropout": null,
    "unk_token": null,
    "continuing_subword_prefix": null,
    "end_of_word_suffix": null,
    "fuse_unk": false,
    "byte_fallback": false,
    "ignore_merges": false,
    "vocab": {
      "!": 0,
      "\"": 1,
      "#": 2,
      "$": 3,
      "%": 4,
      "&": 5,
      "'": 6,
      "(": 7,
      ")": 8,
      "*": 9,
      "+": 10,
      ",": 11,
      "-": 12,
      ".": 13,
      "/": 14,
      "0": 15,
      "1": 16,
      "2": 17,
      "3": 18,
      "4": 19,
      "5": 20,
      "6": 21,
      "7": 22,
      "8": 23,
      "9": 24,
      ":": 25,
      ";": 26,
      "<": 27,
      "=": 28,
      ">": 29,
      "?": 30,
      "@": 31,
      "A": 32,
      "B": 33,
      "C": 34,
      "D": 35,
      "E": 36,
      "F": 37,
      "G": 38,
      "H": 39,
      "I": 40,
      "J": 41,
      "K": 42,
      "L": 43,
      "M": 44,
      "N": 45,
      "O": 46,
      "P": 47,
      "Q": 48,
      "R": 49,
      "S": 50,
      "T": 51,
      "U": 52,
      "V": 53,
      "W": 54,
      "X": 55,
      "Y": 56,
      "Z": 57,
      "[": 58,
      "\\": 59,
      "]": 60,
      "^": 61,
      "_": 62,
      "`": 63,
      "a": 64,
      "b": 65,
      "c": 66,
      "d": 67,
      "e": 68,
      "f": 69,
      "g": 70,
      "h": 71,
      "i": 72,
      "j": 73,
      "k": 74,
      "l": 75,
      "m": 76,
      "n": 77,
      "o": 78,
      "p": 79,
      "q": 80,
      "r": 81,
      "s": 82,
      "t": 83,
      "u": 84,
      "v": 85,
      "w": 86,
      "x": 87,
      "y": 88,
      "z": 89,
      "{": 90,
      "|": 91,
      "}": 92,
      "~": 93,
      "¡": 94,
      "¢": 95,
      "£": 96,
      "¤": 97,
      "¥": 98,
      "¦": 99,
      "§": 100,
      "¨": 101,
      "©": 102,
      "ª": 103,
      "«": 104,
      "¬": 105,
      "®": 106,
      "¯": 107,
      "°": 108,
      "±": 109,
      "²": 110,
      "³": 111,
      "´": 112,
      "µ": 113,
      "¶": 114,
      "·": 115,
      "¸": 116,
      "¹": 117,
      "º": 118,
      "»": 119,
      "¼": 120,
      "½": 121,
      "¾": 122,
      "¿": 123,
      "À": 124,
      "Á": 125,
      "Â": 126,
      "Ã": 127,
      "Ä": 128,
      "Å": 129,
      "Æ": 130,
      "Ç": 131,
      "È": 132,
      "É": 133,
      "Ê": 134,
      "Ë": 135,
      "Ì": 136,
      "Í": 137,
      "Î": 138,
      "Ï": 139,
      "Ð": 140,
      "Ñ": 141,
      "Ò": 142,
      "Ó": 143,
      "Ô": 144,
      "Õ": 145,
      "Ö": 146,
      "×": 147,
      "Ø": 148,
      "Ù": 149,
      "Ú": 150,
      "Û": 151,
      "Ü": 152,
      "Ý": 153,
      "Þ": 154,
      "ß": 155,
      "à": 156,
      "á": 157,
      "â": 158,
      "ã": 159,
      "ä": 160,
      "å": 161,
      "æ": 162,
      "ç": 163,
      "è": 164,
      "é": 165,
      "ê": 166,
      "ë": 167,
      "ì": 168,
      "í": 169,
      "î": 170,
      "ï": 171,
      "ð": 172,
      "ñ": 173,
      "ò": 174,
      "ó": 175,
      "ô": 176,
      "õ": 177,
      "ö": 178,
      "÷": 179,
      "ø": 180,
      "ù": 181,
      "ú": 182,
      "û": 183,
      "ü": 184,
      "ý": 185,
      "þ": 186,
      "ÿ": 187,
      "Ā": 188,
      "ā": 189,
      "Ă": 190,
      "ă": 191,
      "Ą": 192,
      "ą": 193,
      "Ć": 194,
      "ć": 195,
      "Ĉ": 196,
      "ĉ": 197,
      "Ċ": 198,
      "ċ": 199,
      "Č": 200,
      "č": 201,
      "Ď": 202,
      "ď": 203,
      "Đ": 204,
      "đ": 205,
      "Ē": 206,
      "ē": 207,
      "Ĕ": 208,
      "ĕ": 209,
      "Ė": 210,
      "ė": 211,
      "Ę": 212,
      "ę": 213,
      "Ě": 214,
      "ě": 215,
      "Ĝ": 216,
      "ĝ": 217,
      "Ğ": 218,
      "ğ": 219,
      "Ġ": 220,
      "ġ": 221,
      "Ģ": 222,
      "ģ": 223,
      "Ĥ": 224,
      "ĥ": 225,
      "Ħ": 226,
      "ħ": 227,
      "Ĩ": 228,
      "ĩ": 229,
      "Ī": 230,
      "ī": 231,
      "Ĭ": 232,
      "ĭ": 233,
      "Į": 234,
      "į": 235,
      "İ": 236,
      "ı": 237,
      "Ĳ": 238,
      "ĳ": 239,
      "Ĵ": 240,
      "ĵ": 241,
      "Ķ": 242,
      "ķ": 243,
      "ĸ": 244,
      "Ĺ": 245,
      "ĺ": 246,
      "Ļ": 247,
      "ļ": 248,
      "Ľ": 249,
      "ľ": 250,
      "Ŀ": 251,
      "ŀ": 252,
      "Ł": 253,
      "ł": 254,
      "Ń": 255,
      "ĠĠ": 256,
      "ĠĠĠĠ": 257,
      "in": 258,
      "Ġt": 259,
      "ĠĠĠĠĠĠĠĠ": 260,
      "er": 261,
      "ĠĠĠ": 262,
      "on": 263,
      "Ġa": 264,
      "re": 265,
      "at": 266,
      "st": 267,
      "en": 268,
      "or": 269,
      "Ġth": 270,
      "ĊĊ": 271,
      "Ġc": 272,
      "le": 273,
      "Ġs": 274,
      "it": 275,
      "an": 276,
      "ar": 277,
      "al": 278,
      "Ġthe": 279,
      ";Ċ": 280,
      "Ġp": 281,
      "Ġf": 282,
      "ou": 283,
      "Ġ=": 284,
      "is": 285,
      "ĠĠĠĠĠĠĠ": 286,
      "ing": 287,
      "es": 288,
      "Ġw": 289,
      "ion": 290,
      "ed": 291,
      "ic": 292,
      "Ġb": 293,
      "Ġd": 294,
      "et": 295,
      "Ġm": 296,
      "Ġo": 297,
      "ĉĉ": 298,
      "ro": 299,
      "as": 300,
      "el": 301,
      "ct": 302,
      "nd": 303,
      "Ġin": 304,
      "Ġh": 305,
      "ent": 306,
      "id": 307,
      "Ġn": 308,
      "am": 309,
      "ĠĠĠĠĠĠĠĠĠĠĠ": 310,
      "Ġto": 311,
      "Ġre": 312,
      "--": 313,
      "Ġ{": 314,
      "Ġof": 315,
      "om": 316,
      ");Ċ": 317,
      "im": 318,
      "čĊ": 319,
      "Ġ(": 320,
      "il": 321,
      "//": 322,
      "Ġand": 323,
      "ur": 324,
      "se": 325,
      "Ġl": 326,
      "ex": 327,
      "ĠS": 328,
      "ad": 329,
      "Ġ\"": 330,
      "ch": 331,
      "ut": 332,
      "if": 333,
      "**": 334,
      "Ġ}": 335,
      "em": 336,
      "ol": 337,
      "ĠĠĠĠĠĠĠĠĠĠĠĠĠĠĠĠ": 338,
      "th": 339,
      ")Ċ": 340,
      "Ġ{Ċ": 341,
      "Ġg": 342,
      "ig": 343,
      "iv": 344,
      ",Ċ": 345,
      "ce": 346,
      "od": 347,
      "Ġv": 348,
      "ate": 349,
      "ĠT": 350,
      "ag": 351,
      "ay": 352,
      "Ġ*": 353,
      "ot": 354,
      "us": 355,
      "ĠC": 356,
      "Ġst": 357,
      "ĠI": 358,
      "un": 359,
      "ul": 360,
      "ue": 361,
      "ĠA": 362,
      "ow": 363,
      "Ġ'": 364,
      "ew": 365,
      "Ġ<": 366,
      "ation": 367,
      "()": 368,
      "Ġfor": 369,
      "ab": 370,
      "ort": 371,
      "um": 372,
      "ame": 373,
      "Ġis": 374,
      "pe": 375,
      "tr": 376,
      "ck": 377,
      "âĢ": 378,
      "Ġy": 379,
      "ist": 380,
      "----": 381,
      ".ĊĊ": 382,
      "he": 383,
      "Ġe": 384,
      "lo": 385,
      "ĠM": 386,
      "Ġbe": 387,
      "ers": 388,
      "Ġon": 389,
      "Ġcon": 390,
      "ap": 391,
      "ub": 392,
      "ĠP": 393,
      "ĠĠĠĠĠĠĠĠĠĠĠĠĠĠĠ": 394,
      "ass": 395,
      "int": 396,
      ">Ċ": 397,
      "ly": 398,
      "urn": 399,
      "Ġ$": 400,
      ";ĊĊ": 401,
      "av": 402,
      "port": 403,
      "ir": 404,
      "->": 405,
      "nt": 406,
      "ction": 407,
      "end": 408,
      "Ġde": 409,
      "00": 410,
      "ith": 411,
      "out": 412,
      "turn": 413,
      "our": 414,
      "ĠĠĠĠĠ": 415,
      "lic": 416,
      "res": 417,
      "pt": 418,
      "==": 419,
      "Ġthis": 420,
      "Ġwh": 421,
      "Ġif": 422,
      "ĠD": 423,
      "ver": 424,
      "age": 425,
      "ĠB": 426,
      "ht": 427,
      "ext": 428,
      "=\"": 429,
      "Ġthat": 430,
      "****": 431,
      "ĠR": 432,
      "Ġit": 433,
      "ess": 434,
      "ĠF": 435,
      "Ġr": 436,
      "os": 437,
      "and": 438,
      "Ġas": 439,
      "ect": 440,
      "ke": 441,
      "rom": 442,
      "Ġ//": 443,
      "con": 444,
      "ĠL": 445,
      "(\"": 446,
      "qu": 447,
      "lass": 448,
      "Ġwith": 449,
      "iz": 450,
      "de": 451,
      "ĠN": 452,
      "Ġal": 453,
      "op": 454,
      "up": 455,
      "get": 456,
      "Ġ}Ċ": 457,
      "ile": 458,
      "Ġan": 459,
      "ata": 460,
      "ore": 461,
      "ri": 462,
      "Ġpro": 463,
      ";čĊ": 464,
      "ĉĉĉĉ": 465,
      "ter": 466,
      "ain": 467,
      "ĠW": 468,
      "ĠE": 469,
      "Ġcom": 470,
      "Ġreturn": 471,
      "art": 472,
      "ĠH": 473,
      "ack": 474,
      "import": 475,
      "ublic": 476,
      "Ġor": 477,
      "est": 478,
      "ment": 479,
      "ĠG": 480,
      "able": 481,
      "Ġ-": 482,
      "ine": 483,
      "ill": 484,
      "ind": 485,
      "ere": 486,
      "::": 487,
      "ity": 488,
      "Ġ+": 489,
      "Ġtr": 490,
      "elf": 491,
      "ight": 492,
      "('": 493,
      "orm": 494,
      "ult": 495,
      "str": 496,
      "..": 497,
      "\",": 498,
      "Ġyou": 499,
      "ype": 500,
      "pl": 501,
      "Ġnew": 502,
      "Ġj": 503,
      "ĠĠĠĠĠĠĠĠĠĠĠĠĠĠĠĠĠĠĠ": 504,
      "Ġfrom": 505,
      "Ġex": 506,
      "ĠO": 507,
      "20": 508,
      "ld": 509,
      "Ġ[": 510,
      "oc": 511,
      ":Ċ": 512,
      "Ġse": 513,
      "Ġle": 514,
      "--------": 515,
      ".s": 516,
      "{Ċ": 517,
      "',": 518,
      "ant": 519,
      "Ġat": 520,
      "ase": 521,
      ".c": 522,
      "Ġch": 523,
      "</": 524,
      "ave": 525,
      "ang": 526,
      "Ġare": 527,
      "Ġint": 528,
      "âĢĻ": 529,
      "_t": 530,
      "ert": 531,
      "ial": 532,
      "act": 533,
      "}Ċ": 534,
      "ive": 535,
      "ode": 536,
      "ost": 537,
      "Ġclass": 538,
      "Ġnot": 539,
      "og": 540,
      "ord": 541,
      "alue": 542,
      "all": 543,
      "ff": 544,
      "();Ċ": 545,
      "ont": 546,
      "ime": 547,
      "are": 548,
      "ĠU": 549,
      "Ġpr": 550,
      "Ġ:": 551,
      "ies": 552,
      "ize": 553,
      "ure": 554,
      "Ġby": 555,
      "ire": 556,
      "Ġ}ĊĊ": 557,
      ".p": 558,
      "Ġsh": 559,
      "ice": 560,
      "ast": 561,
      "ption": 562,
      "tring": 563,
      "ok": 564,
      "__": 565,
      "cl": 566,
      "##": 567,
      "Ġhe": 568,
      "ard": 569,
      ").": 570,
      "Ġ@": 571,
      "iew": 572,
      "ĉĉĉ": 573,
      "Ġwas": 574,
      "ip": 575,
      "this": 576,
      "Ġu": 577,
      "ĠThe": 578,
      "ide": 579,
      "ace": 580,
      "ib": 581,
      "ac": 582,
      "rou": 583,
      "Ġwe": 584,
      "ject": 585,
      "Ġpublic": 586,
      "ak": 587,
      "ve": 588,
      "ath": 589,
      "oid": 590,
      "Ġ=>": 591,
      "ust": 592,
      "que": 593,
      "Ġres": 594,
      "))": 595,
      "'s": 596,
      "Ġk": 597,
      "ans": 598,
      "yst": 599,
      "unction": 600,
      "********": 601,
      "Ġi": 602,
      "Ġus": 603,
      "pp": 604,
      "10": 605,
      "one": 606,
      "ail": 607,
      "====": 608,
      "name": 609,
      "Ġstr": 610,
      "Ġ/": 611,
      "Ġ&": 612,
      "ach": 613,
      "div": 614,
      "ystem": 615,
      "ell": 616,
      "Ġhave": 617,
      "err": 618,
      "ould": 619,
      "ull": 620,
      "pon": 621,
      "ĠJ": 622,
      "_p": 623,
      "Ġ==": 624,
      "ign": 625,
      "St": 626,
      ".Ċ": 627,
      "Ġpl": 628,
      ");ĊĊ": 629,
      "form": 630,
      "put": 631,
      "ount": 632,
      "}ĊĊ": 633,
      "dd": 634,
      "ite": 635,
      "Ġget": 636,
      "rr": 637,
      "ome": 638,
      "ĠâĢ": 639,
      "aram": 640,
      "cc": 641,
      "Ġ*/": 642,
      "ER": 643,
      "In": 644,
      "les": 645,
      "_s": 646,
      "ong": 647,
      "ie": 648,
      "Ġcan": 649,
      "ĠV": 650,
      "erv": 651,
      "pr": 652,
      "Ġun": 653,
      "row": 654,
      "ber": 655,
      "Ġdo": 656,
      "ll": 657,
      "Ġel": 658,
      "Ġself": 659,
      "ated": 660,
      "ary": 661,
      "Ġ.": 662,
      "']": 663,
      "ud": 664,
      "Ġen": 665,
      "ĠTh": 666,
      "ĠĠĠĠĠĠĠĠĠĠĠĠĠĠĠĠĠĠĠĠĠĠĠ": 667,
      "te": 668,
      "_c": 669,
      "uct": 670,
      "Ġab": 671,
      "ork": 672,
      ".get": 673,
      "Ġ#": 674,
      "aw": 675,
      "ress": 676,
      "ob": 677,
      "Name": 678,
      "201": 679,
      "app": 680,
      "['": 681,
      "Ġall": 682,
      "ory": 683,
      "ition": 684,
      "ance": 685,
      "ear": 686,
      "Ġcont": 687,
      "vent": 688,
      "ia": 689,
      "Ġwill": 690,
      "IN": 691,
      "ĠĠĠĠĠĠĠĠĠ": 692,
      "return": 693,
      "Ġ</": 694,
      "data": 695,
      ")ĊĊ": 696,
      "Re": 697,
      "ple": 698,
      "ild": 699,
      "ther": 700,
      "Ġyour": 701,
      "\"Ċ": 702,
      "($": 703,
      "Ġout": 704,
      "),": 705,
      "Ġhas": 706,
      "String": 707,
      "so": 708,
      "Ġup": 709,
      "ax": 710,
      "Ġdef": 711,
      "Ġbo": 712,
      "ge": 713,
      "alse": 714,
      "ON": 715,
      "per": 716,
      "12": 717,
      "ich": 718,
      "Ġbut": 719,
      "ĠĊ": 720,
      "Ġ_": 721,
      "_m": 722,
      "add": 723,
      "quest": 724,
      "odel": 725,
      "self": 726,
      "ery": 727,
      "ft": 728,
      "ens": 729,
      "////": 730,
      "ake": 731,
      ".C": 732,
      "Ġgo": 733,
      "Ġfunction": 734,
      "ĠK": 735,
      "ivate": 736,
      "Ġim": 737,
      "Ġconst": 738,
      ".t": 739,
      "Ġ*/Ċ": 740,
      ");čĊ": 741,
      "Ġvoid": 742,
      "Ġset": 743,
      "ĠSystem": 744,
      "cri": 745,
      "()Ċ": 746,
      "li": 747,
      "ĉif": 748,
      ".m": 749,
      "ally": 750,
      "set": 751,
      "ep": 752,
      "âĢĻs": 753,
      "bo": 754,
      "def": 755,
      "',Ċ": 756,
      "Ġme": 757,
      "Ġ!": 758,
      "atch": 759,
      "\">": 760,
      "\",Ċ": 761,
      "ec": 762,
      "ĠIn": 763,
      "ph": 764,
      "Ġ|": 765,
      "_f": 766,
      "Ġvar": 767,
      "ence": 768,
      "Id": 769,
      "ree": 770,
      "ink": 771,
      "lect": 772,
      "ug": 773,
      "eth": 774,
      "Ġelse": 775,
      "----------------": 776,
      "19": 777,
      "cont": 778,
      "Ġso": 779,
      "atic": 780,
      "Ġlo": 781,
      "pro": 782,
      "ton": 783,
      "ss": 784,
      "own": 785,
      "abel": 786,
      "oint": 787,
      "ous": 788,
      "eld": 789,
      "ST": 790,
      "The": 791,
      "ĠĠĠĠĠĠĠĠĠĠĠĠĠĠĠĠĠĠĠĠĠĠĠĠĠĠĠĠĠĠĠĠ": 792,
      "RE": 793,
      "\":": 794,
      "olor": 795,
      "tp": 796,
      "eg": 797,
      "key": 798,
      "ude": 799,
      "ĠSt": 800,
      "ound": 801,
      "Ġar": 802,
      "\");Ċ": 803,
      "ener": 804,
      "ser": 805,
      "11": 806,
      "bject": 807,
      "essage": 808,
      "fer": 809,
      "Ġmore": 810,
      "ations": 811,
      "ents": 812,
      "Ġhis": 813,
      "Ġthey": 814,
      ".S": 815,
      "ĠY": 816,
      "use": 817,
      "ne": 818,
      "ish": 819,
      "old": 820,
      "_d": 821,
      "io": 822,
      "ield": 823,
      "Ġper": 824,
      "Cont": 825,
      "ings": 826,
      "####": 827,
      "Ġdata": 828,
      "Ġsa": 829,
      "ef": 830,
      "fo": 831,
      "Ġone": 832,
      "eng": 833,
      "Ġdis": 834,
      "AT": 835,
      "Ġname": 836,
      "Ġtrue": 837,
      "val": 838,
      "led": 839,
      ".f": 840,
      "Ġne": 841,
      "Ġend": 842,
      "32": 843,
      ".T": 844,
      "16": 845,
      "cre": 846,
      "ark": 847,
      "log": 848,
      "Ex": 849,
      "error": 850,
      "_id": 851,
      "urre": 852,
      "ange": 853,
      "Ġnull": 854,
      "rray": 855,
      "Ġmy": 856,
      "pan": 857,
      "ict": 858,
      "ator": 859,
      "View": 860,
      "List": 861,
      "ĉreturn": 862,
      "âĢĿ": 863,
      "Ġpre": 864,
      "Ġx": 865,
      "clude": 866,
      "arg": 867,
      "15": 868,
      "ov": 869,
      ".h": 870,
      "Ġ>": 871,
      "Ġtheir": 872,
      "')": 873,
      "irst": 874,
      "ick": 875,
      "gh": 876,
      "LE": 877,
      "OR": 878,
      "Ġprivate": 879,
      "tem": 880,
      "čĊčĊ": 881,
      "user": 882,
      "Ġ)": 883,
      "com": 884,
      ".A": 885,
      "\";Ċ": 886,
      "Ġid": 887,
      "read": 888,
      "Ġwho": 889,
      "_b": 890,
      "\">Ċ": 891,
      "Ġtime": 892,
      "Ġman": 893,
      "ry": 894,
      "========": 895,
      "roup": 896,
      "rop": 897,
      "public": 898,
      "vel": 899,
      "umber": 900,
      "ble": 901,
      "Ġwhich": 902,
      "****************": 903,
      "Ġany": 904,
      "Ġfalse": 905,
      "we": 906,
      "Ġvalue": 907,
      "Ġli": 908,
      "\")": 909,
      "nder": 910,
      "gr": 911,
      "Ġno": 912,
      "param": 913,
      "25": 914,
      "fig": 915,
      ".com": 916,
      "Ġapp": 917,
      "_l": 918,
      "ions": 919,
      ".D": 920,
      "ĠCh": 921,
      "Ġabout": 922,
      "Ġadd": 923,
      "Ġsu": 924,
      "Ġstring": 925,
      "ID": 926,
      "Ġover": 927,
      "string": 928,
      ".l": 929,
      "ource": 930,
      "000": 931,
      "_C": 932,
      "]Ċ": 933,
      "Ġqu": 934,
      "ĠString": 935,
      "ca": 936,
      "SE": 937,
      "Ġro": 938,
      "sh": 939,
      "ual": 940,
      "Type": 941,
      "son": 942,
      "new": 943,
      "ern": 944,
      "Ġag": 945,
      "AR": 946,
      "];Ċ": 947,
      "].": 948,
      "Ġ?": 949,
      "ical": 950,
      "Ġdes": 951,
      "uth": 952,
      "ix": 953,
      "ays": 954,
      "Ġtype": 955,
      "'t": 956,
      "ault": 957,
      "Ġinter": 958,
      "var": 959,
      ".b": 960,
      "Ġpart": 961,
      ".d": 962,
      "urrent": 963,
      "IT": 964,
      "EN": 965,
      "30": 966,
      "enc": 967,
      "(f": 968,
      "ra": 969,
      "value": 970,
      "cho": 971,
      "18": 972,
      "utton": 973,
      "ose": 974,
      "14": 975,
      "Ġ!=": 976,
      "ater": 977,
      "Ã©": 978,
      "reate": 979,
      "oll": 980,
      "pos": 981,
      "yle": 982,
      "ng": 983,
      "AL": 984,
      "using": 985,
      "ames": 986,
      "Ġ{čĊ": 987,
      "ates": 988,
      "ely": 989,
      "Ġwork": 990,
      "Ġem": 991,
      "inal": 992,
      "Ġsp": 993,
      "Ġwhen": 994,
      ".set": 995,
      "ĠĠĠĠĠĠ": 996,
      "):Ċ": 997,
      "to": 998,
      "quire": 999,
      "indow": 1000,
      "lement": 1001,
      "pect": 1002,
      "ash": 1003,
      "[i": 1004,
      "Ġuse": 1005,
      ".F": 1006,
      "pec": 1007,
      "Ġad": 1008,
      "ove": 1009,
      "ception": 1010,
      "ength": 1011,
      "include": 1012,
      "ader": 1013,
      "ĠĠĠĠĠĠĠĠĠĠĠĠĠĠĠĠĠĠĠĠĠĠĠĠĠĠĠ": 1014,
      "atus": 1015,
      "Th": 1016,
      "itle": 1017,
      "rit": 1018,
      "void": 1019,
      "().": 1020,
      "(Ċ": 1021,
      "Ġoff": 1022,
      "Ġother": 1023,
      "Ġ&&": 1024,
      "';Ċ": 1025,
      "ms": 1026,
      "Ġbeen": 1027,
      "Ġte": 1028,
      "ml": 1029,
      "co": 1030,
      "nc": 1031,
      "13": 1032,
      "ervice": 1033,
      "Ġ%": 1034,
      "**Ċ": 1035,
      "ann": 1036,
      "ade": 1037,
      "ĊĊĊĊ": 1038,
      "lock": 1039,
      "const": 1040,
      "100": 1041,
      "ponse": 1042,
      "Ġsup": 1043,
      "++": 1044,
      "date": 1045,
      "Ġacc": 1046,
      "Ġhad": 1047,
      "Ġbu": 1048,
      "200": 1049,
      "ĠRe": 1050,
      "Ġwere": 1051,
      "Ġfile": 1052,
      "Ġwould": 1053,
      "ĠâĢľ": 1054,
      "ven": 1055,
      "iss": 1056,
      "Ġour": 1057,
      "class": 1058,
      "raw": 1059,
      "Ġyear": 1060,
      "Data": 1061,
      "Ġval": 1062,
      "Ġsome": 1063,
      "fter": 1064,
      "ys": 1065,
      "Ġ///": 1066,
      "round": 1067,
      "view": 1068,
      "Ġpe": 1069,
      "Ġthere": 1070,
      "Ġsaid": 1071,
      "du": 1072,
      "of": 1073,
      "line": 1074,
      "/*": 1075,
      "duct": 1076,
      "Ġher": 1077,
      "ĠĠĠĠĠĠĠĠĠĠĠĠĠ": 1078,
      "Res": 1079,
      "Ġco": 1080,
      "Ġcomm": 1081,
      "ise": 1082,
      "min": 1083,
      "ĠĠĠĠĊ": 1084,
      "#include": 1085,
      "ethod": 1086,
      ".P": 1087,
      "ute": 1088,
      "Ġass": 1089,
      "Int": 1090,
      "ask": 1091,
      "loc": 1092,
      "Ġlike": 1093,
      "ody": 1094,
      "Ġlet": 1095,
      "load": 1096,
      "Ġam": 1097,
      "rol": 1098,
      "Ġgr": 1099,
      "yp": 1100,
      "Ġalso": 1101,
      "ĠIt": 1102,
      "url": 1103,
      "ific": 1104,
      "ors": 1105,
      "_P": 1106,
      "_n": 1107,
      "igh": 1108,
      "Ġthan": 1109,
      "Com": 1110,
      "AN": 1111,
      "UL": 1112,
      "ating": 1113,
      "17": 1114,
      "ĠThis": 1115,
      "ref": 1116,
      "_S": 1117,
      "Ġstatic": 1118,
      "roll": 1119,
      "Ġjust": 1120,
      "Ġresult": 1121,
      "ian": 1122,
      "idth": 1123,
      "Ġthem": 1124,
      "));Ċ": 1125,
      "der": 1126,
      "reak": 1127,
      "Con": 1128,
      "://": 1129,
      "ule": 1130,
      "...": 1131,
      "arch": 1132,
      "ement": 1133,
      "Ġ<<": 1134,
      "50": 1135,
      "ush": 1136,
      "ense": 1137,
      "arr": 1138,
      "Ġinto": 1139,
      "cess": 1140,
      "amp": 1141,
      "ied": 1142,
      "ument": 1143,
      "Ġ\\": 1144,
      "],": 1145,
      "wo": 1146,
      "als": 1147,
      "Ġwhat": 1148,
      "anc": 1149,
      "Value": 1150,
      "='": 1151,
      "olum": 1152,
      "Ġpos": 1153,
      "ages": 1154,
      "ayer": 1155,
      "Ġsc": 1156,
      "ues": 1157,
      "\")Ċ": 1158,
      "_T": 1159,
      "Ġlist": 1160,
      "(s": 1161,
      "Ġcase": 1162,
      "Ch": 1163,
      "ĉĉĉĉĉ": 1164,
      "////////": 1165,
      "ponent": 1166,
      "Ġz": 1167,
      "Ġkn": 1168,
      "let": 1169,
      "DE": 1170,
      "red": 1171,
      "Ġfe": 1172,
      "Ġ},Ċ": 1173,
      "Ġ,": 1174,
      "(t": 1175,
      "Ġfirst": 1176,
      "');Ċ": 1177,
      "word": 1178,
      "Ġimport": 1179,
      "Ġact": 1180,
      "Ġchar": 1181,
      "CT": 1182,
      "ĠTr": 1183,
      "ople": 1184,
      "={": 1185,
      "ĉf": 1186,
      "24": 1187,
      "ient": 1188,
      "cent": 1189,
      ".j": 1190,
      "lection": 1191,
      "))Ċ": 1192,
      "Ġonly": 1193,
      "Ġprint": 1194,
      "mer": 1195,
      ".W": 1196,
      "ock": 1197,
      "Ġ--": 1198,
      "Text": 1199,
      "Ġop": 1200,
      "ank": 1201,
      "Ġits": 1202,
      "Ġback": 1203,
      "[\"": 1204,
      "Ġneed": 1205,
      "Ġcl": 1206,
      "Ġsub": 1207,
      "Ġla": 1208,
      "((": 1209,
      ".\"": 1210,
      "Object": 1211,
      "Ġstart": 1212,
      "file": 1213,
      "(self": 1214,
      "ner": 1215,
      "ey": 1216,
      "Ġuser": 1217,
      "Ġent": 1218,
      "ĠCom": 1219,
      "its": 1220,
      "ĠCon": 1221,
      "ouble": 1222,
      "ower": 1223,
      "item": 1224,
      "very": 1225,
      "ĠWe": 1226,
      "64": 1227,
      "lick": 1228,
      "ĠQ": 1229,
      "php": 1230,
      "ttp": 1231,
      "':": 1232,
      "ics": 1233,
      "Ġunder": 1234,
      "Ġ*Ċ": 1235,
      ".L": 1236,
      ");": 1237,
      "ices": 1238,
      "Ġreg": 1239,
      ")čĊ": 1240,
      "ĉpublic": 1241,
      "SS": 1242,
      "Ġthen": 1243,
      "reat": 1244,
      "ious": 1245,
      ".G": 1246,
      "ek": 1247,
      "irect": 1248,
      "heck": 1249,
      "cript": 1250,
      "ning": 1251,
      "ĠUn": 1252,
      "Ġmay": 1253,
      "ĠWh": 1254,
      "Bo": 1255,
      "Item": 1256,
      "struct": 1257,
      ".st": 1258,
      "ream": 1259,
      "ible": 1260,
      "loat": 1261,
      "Ġorg": 1262,
      "und": 1263,
      "sum": 1264,
      "_in": 1265,
      "../": 1266,
      "_M": 1267,
      "Ġhow": 1268,
      "rite": 1269,
      "'Ċ": 1270,
      "To": 1271,
      "40": 1272,
      "ww": 1273,
      "Ġpeople": 1274,
      "index": 1275,
      ".n": 1276,
      "http": 1277,
      "(m": 1278,
      "ector": 1279,
      "Ġind": 1280,
      "Ġjav": 1281,
      "],Ċ": 1282,
      "ĠHe": 1283,
      "_st": 1284,
      "ful": 1285,
      "ole": 1286,
      "){Ċ": 1287,
      "Ġshould": 1288,
      "opy": 1289,
      "elp": 1290,
      "ier": 1291,
      "_name": 1292,
      "erson": 1293,
      "ION": 1294,
      "ote": 1295,
      "Ġtest": 1296,
      "Ġbet": 1297,
      "rror": 1298,
      "ular": 1299,
      "ãĢ": 1300,
      "ĠÐ": 1301,
      "bs": 1302,
      "ting": 1303,
      "Ġmake": 1304,
      "Tr": 1305,
      "Ġafter": 1306,
      "arget": 1307,
      "RO": 1308,
      "olumn": 1309,
      "rc": 1310,
      "_re": 1311,
      "define": 1312,
      "22": 1313,
      "Ġright": 1314,
      "right": 1315,
      "day": 1316,
      "Ġlong": 1317,
      "[]": 1318,
      "(p": 1319,
      "td": 1320,
      "cond": 1321,
      "ĠPro": 1322,
      "Ġrem": 1323,
      "ptions": 1324,
      "vid": 1325,
      ".g": 1326,
      "Ġext": 1327,
      "Ġ__": 1328,
      "')Ċ": 1329,
      "pace": 1330,
      "mp": 1331,
      "Ġmin": 1332,
      "stance": 1333,
      "air": 1334,
      "action": 1335,
      "wh": 1336,
      "type": 1337,
      "util": 1338,
      "ait": 1339,
      "<?": 1340,
      "IC": 1341,
      "text": 1342,
      "Ġph": 1343,
      "Ġfl": 1344,
      ".M": 1345,
      "ccess": 1346,
      "br": 1347,
      "fore": 1348,
      "ersion": 1349,
      "),Ċ": 1350,
      ".re": 1351,
      "ateg": 1352,
      "Ġloc": 1353,
      "ins": 1354,
      "-s": 1355,
      "trib": 1356,
      "ĠInt": 1357,
      "Ġarray": 1358,
      ",\"": 1359,
      "Pro": 1360,
      "(c": 1361,
      "ession": 1362,
      ">ĊĊ": 1363,
      "Ġshe": 1364,
      "\"]": 1365,
      "aph": 1366,
      "Ġexp": 1367,
      "erty": 1368,
      "ĠSe": 1369,
      "Ġpar": 1370,
      "unc": 1371,
      "ET": 1372,
      "Ġread": 1373,
      "print": 1374,
      "Ġrel": 1375,
      "Ġform": 1376,
      "Ġdr": 1377,
      "Exception": 1378,
      "input": 1379,
      "Ġtrans": 1380,
      "########": 1381,
      "order": 1382,
      "By": 1383,
      "Ġaw": 1384,
      "ities": 1385,
      "uff": 1386,
      "play": 1387,
      ".add": 1388,
      "ĠâĢĵ": 1389,
      "Ġwant": 1390,
      "Ġcomp": 1391,
      "ments": 1392,
      "Ġ||": 1393,
      "az": 1394,
      "be": 1395,
      "Ġnumber": 1396,
      "Ġrequire": 1397,
      "ĠEx": 1398,
      "60": 1399,
      "Ġcol": 1400,
      "Ġkey": 1401,
      "ember": 1402,
      "Ġtwo": 1403,
      "Ġsize": 1404,
      "Ġwhere": 1405,
      "UT": 1406,
      "result": 1407,
      "ĠĠĠĠĠĠĠĠĠĠĠĠĠĠĠĠĠĠĠĠĠĠĠĠĠĠĠĠĠĠĠ": 1408,
      "ough": 1409,
      "orld": 1410,
      "ood": 1411,
      "uch": 1412,
      "ative": 1413,
      "ger": 1414,
      "arent": 1415,
      "Ġ/*": 1416,
      "Ġarg": 1417,
      "Ġwhile": 1418,
      "23": 1419,
      "(this": 1420,
      "Ġrec": 1421,
      "Ġdif": 1422,
      "State": 1423,
      "Ġspec": 1424,
      "ride": 1425,
      "_F": 1426,
      "Ġlook": 1427,
      "AM": 1428,
      "ility": 1429,
      "eter": 1430,
      "âĢĻt": 1431,
      "ĊĊĊ": 1432,
      "ayout": 1433,
      "--------------------------------": 1434,
      "ager": 1435,
      "Ġcould": 1436,
      "Ġbr": 1437,
      "ends": 1438,
      "ures": 1439,
      "Ġknow": 1440,
      "ets": 1441,
      "ĠIf": 1442,
      "ĠSh": 1443,
      ".w": 1444,
      "back": 1445,
      "Ġser": 1446,
      "Ġ+=": 1447,
      "Ġfr": 1448,
      "());Ċ": 1449,
      "Ġhand": 1450,
      "Ind": 1451,
      "ULL": 1452,
      "Im": 1453,
      "();ĊĊ": 1454,
      "Ġmost": 1455,
      "Ġtry": 1456,
      "Ġnow": 1457,
      "rough": 1458,
      ">čĊ": 1459,
      "ackage": 1460,
      "Ġhim": 1461,
      "._": 1462,
      "ify": 1463,
      "Ġbreak": 1464,
      "Ġ);Ċ": 1465,
      "ren": 1466,
      "#define": 1467,
      "itt": 1468,
      "Ġap": 1469,
      "ĉc": 1470,
      "(n": 1471,
      "ĠYou": 1472,
      ":ĊĊ": 1473,
      "-m": 1474,
      "Ġevery": 1475,
      "ustom": 1476,
      "lient": 1477,
      "ocument": 1478,
      "cription": 1479,
      "Error": 1480,
      "-b": 1481,
      "Ð¾": 1482,
      "][": 1483,
      "99": 1484,
      "trans": 1485,
      "Ġpoint": 1486,
      "Ġstd": 1487,
      "Ġfil": 1488,
      "Time": 1489,
      "80": 1490,
      "Ġmod": 1491,
      "Ġ->": 1492,
      "Ġerror": 1493,
      "ah": 1494,
      "Ġtext": 1495,
      "roller": 1496,
      "lose": 1497,
      "ql": 1498,
      "Ġpol": 1499,
      "></": 1500,
      "Ġshow": 1501,
      "User": 1502,
      "ased": 1503,
      "Ġ{ĊĊ": 1504,
      "Ġfind": 1505,
      "Ð°": 1506,
      "ED": 1507,
      "span": 1508,
      "enu": 1509,
      "Ġcurrent": 1510,
      "Ġused": 1511,
      "cept": 1512,
      "clud": 1513,
      "Ġplay": 1514,
      "Ġlog": 1515,
      "ution": 1516,
      "fl": 1517,
      "Ġsee": 1518,
      "indows": 1519,
      "Ġhelp": 1520,
      "Ġthese": 1521,
      "Ġpass": 1522,
      "Ġdown": 1523,
      "Ġeven": 1524,
      "ason": 1525,
      "uild": 1526,
      "from": 1527,
      "(d": 1528,
      "Ġbl": 1529,
      "label": 1530,
      "else": 1531,
      "Ðµ": 1532,
      "Ġ(!": 1533,
      "ized": 1534,
      "(),": 1535,
      "Ġob": 1536,
      "Ġitem": 1537,
      "ump": 1538,
      "UR": 1539,
      "orn": 1540,
      "Ġdon": 1541,
      "Se": 1542,
      "man": 1543,
      "27": 1544,
      "ample": 1545,
      "tn": 1546,
      "================": 1547,
      "He": 1548,
      "gram": 1549,
      "Ġdid": 1550,
      "wn": 1551,
      "_h": 1552,
      "iver": 1553,
      "Ġsm": 1554,
      "Ġthrough": 1555,
      "ĠAn": 1556,
      "che": 1557,
      "Ġinv": 1558,
      "ouse": 1559,
      "Ġes": 1560,
      "ĠNew": 1561,
      "export": 1562,
      "mary": 1563,
      "uto": 1564,
      "ler": 1565,
      "Ġlast": 1566,
      "Ġevent": 1567,
      "try": 1568,
      "ï¼": 1569,
      "ily": 1570,
      "igned": 1571,
      "ines": 1572,
      "ollow": 1573,
      "icense": 1574,
      "sole": 1575,
      "lear": 1576,
      "(int": 1577,
      "Ġagain": 1578,
      "Ġhigh": 1579,
      "html": 1580,
      "Index": 1581,
      "uthor": 1582,
      "Ġ/**Ċ": 1583,
      "Ġline": 1584,
      "Event": 1585,
      "_D": 1586,
      "Ġdoes": 1587,
      "itial": 1588,
      "Ġcr": 1589,
      "ars": 1590,
      "28": 1591,
      "Ġtem": 1592,
      "cause": 1593,
      "face": 1594,
      "Ġ`": 1595,
      "_A": 1596,
      "Button": 1597,
      "ature": 1598,
      "ected": 1599,
      "ES": 1600,
      "ister": 1601,
      "ĉĊ": 1602,
      "Ġbefore": 1603,
      "ale": 1604,
      "other": 1605,
      "Ġbecause": 1606,
      "roid": 1607,
      "Ġed": 1608,
      "ik": 1609,
      "reg": 1610,
      "ĠDe": 1611,
      "Ġdist": 1612,
      "},Ċ": 1613,
      "Ġstate": 1614,
      "Ġcons": 1615,
      "rint": 1616,
      "att": 1617,
      "Ġhere": 1618,
      "ined": 1619,
      "Ġfinal": 1620,
      "Ġ\"\"": 1621,
      "Key": 1622,
      "LO": 1623,
      "Ġdel": 1624,
      "pty": 1625,
      "thing": 1626,
      "26": 1627,
      "ĠAnd": 1628,
      "Ġrun": 1629,
      "ĠX": 1630,
      "ym": 1631,
      ".app": 1632,
      "Ġvery": 1633,
      "ces": 1634,
      "_N": 1635,
      "ared": 1636,
      "ward": 1637,
      "list": 1638,
      "ited": 1639,
      "olog": 1640,
      "itch": 1641,
      "Box": 1642,
      "ife": 1643,
      "33": 1644,
      "Ġac": 1645,
      "Ġmodel": 1646,
      "Ġmon": 1647,
      "Ġway": 1648,
      "lete": 1649,
      "Ġcall": 1650,
      "Ġatt": 1651,
      "Ġcal": 1652,
      "vert": 1653,
      "Ġdec": 1654,
      "lease": 1655,
      "oun": 1656,
      "Ġ});Ċ": 1657,
      "fr": 1658,
      "formation": 1659,
      "etail": 1660,
      "Ġnum": 1661,
      "aj": 1662,
      "query": 1663,
      "Ġwell": 1664,
      "Ġobject": 1665,
      "ĠAs": 1666,
      "Ġyears": 1667,
      "Color": 1668,
      "IS": 1669,
      "Ġdefault": 1670,
      "Wh": 1671,
      "Ġins": 1672,
      "aint": 1673,
      "Ġjava": 1674,
      "Ġsim": 1675,
      "ĠAr": 1676,
      "mon": 1677,
      "til": 1678,
      "();čĊ": 1679,
      "):": 1680,
      "Set": 1681,
      "29": 1682,
      "atter": 1683,
      "Ġview": 1684,
      "Ġpres": 1685,
      "array": 1686,
      "We": 1687,
      "At": 1688,
      "Ġbel": 1689,
      "Ġmany": 1690,
      "21": 1691,
      "Man": 1692,
      "ender": 1693,
      "Ġbeing": 1694,
      "Ġgood": 1695,
      "ĉĉĉĉĉĉ": 1696,
      "ational": 1697,
      "ware": 1698,
      ".log": 1699,
      "{čĊ": 1700,
      "Ġusing": 1701,
      "_B": 1702,
      "Ġ:=": 1703,
      "_w": 1704,
      "ists": 1705,
      "lish": 1706,
      "Ġstud": 1707,
      "ĠAl": 1708,
      "Ġgu": 1709,
      "config": 1710,
      "uring": 1711,
      "time": 1712,
      "oken": 1713,
      "amespace": 1714,
      "Ġrequest": 1715,
      "Ġchild": 1716,
      "ĠÃ": 1717,
      "lob": 1718,
      "Ġparam": 1719,
      "Ġ}čĊ": 1720,
      "01": 1721,
      "Ġecho": 1722,
      "function": 1723,
      "********************************": 1724,
      "ps": 1725,
      "Element": 1726,
      "alk": 1727,
      "lication": 1728,
      "by": 1729,
      "Size": 1730,
      "rawing": 1731,
      "Ġperson": 1732,
      "ĠĠĠĠĠĠĠĠĠĠĠĠĠĠĠĠĠ": 1733,
      "\\n": 1734,
      "object": 1735,
      "ince": 1736,
      "En": 1737,
      "File": 1738,
      "uf": 1739,
      "ffect": 1740,
      "AC": 1741,
      "Ġstyle": 1742,
      "summary": 1743,
      "Ġque": 1744,
      "_r": 1745,
      "Ġ($": 1746,
      "Model": 1747,
      "ident": 1748,
      "Ġmethod": 1749,
      "IL": 1750,
      "ott": 1751,
      "less": 1752,
      "ING": 1753,
      "Ġ()": 1754,
      "Ġexpect": 1755,
      "ync": 1756,
      "package": 1757,
      "35": 1758,
      "urs": 1759,
      "Ġprot": 1760,
      "./": 1761,
      "pre": 1762,
      "Ġ)Ċ": 1763,
      "ma": 1764,
      "Ġsur": 1765,
      "Ġfound": 1766,
      "Info": 1767,
      "par": 1768,
      "imes": 1769,
      ".e": 1770,
      "ains": 1771,
      "Ġpost": 1772,
      "-d": 1773,
      "45": 1774,
      "olean": 1775,
      "Ġsl": 1776,
      "PE": 1777,
      "Ġsuch": 1778,
      "select": 1779,
      "ainer": 1780,
      "Ġthink": 1781,
      "Ġdiffer": 1782,
      ".r": 1783,
      "/**Ċ": 1784,
      "FF": 1785,
      "ool": 1786,
      "plate": 1787,
      "qual": 1788,
      "ĠFor": 1789,
      "Ġmuch": 1790,
      "uc": 1791,
      "(new": 1792,
      "odule": 1793,
      "Ġsom": 1794,
      "Ġhttp": 1795,
      "ĠList": 1796,
      "Ġcount": 1797,
      "Ġinst": 1798,
      "char": 1799,
      "mit": 1800,
      ".id": 1801,
      "aking": 1802,
      "Ġgener": 1803,
      "px": 1804,
      "vice": 1805,
      "37": 1806,
      "_data": 1807,
      "ĠNULL": 1808,
      "}čĊ": 1809,
      "idd": 1810,
      "ãĢĤ": 1811,
      "Ġmed": 1812,
      "org": 1813,
      "ider": 1814,
      "ache": 1815,
      "work": 1816,
      "Ġcheck": 1817,
      "ween": 1818,
      "Ġ((": 1819,
      "the": 1820,
      "ants": 1821,
      "><": 1822,
      ".B": 1823,
      "-c": 1824,
      "Ġopen": 1825,
      "Ġest": 1826,
      "ĠĠĠĠĠĠĠĠĊ": 1827,
      "Ġnext": 1828,
      "IM": 1829,
      "ÑĤ": 1830,
      "OT": 1831,
      "Ã³": 1832,
      "Ġfollow": 1833,
      "content": 1834,
      "ĠĠĠĠĠĠĠĠĠĠĠĠ": 1835,
      "Ġinclud": 1836,
      "HE": 1837,
      "ĠRes": 1838,
      "Ġhref": 1839,
      "Ð¸": 1840,
      "Ġcar": 1841,
      "ypes": 1842,
      "image": 1843,
      "Un": 1844,
      "Ġbool": 1845,
      "AD": 1846,
      "Ġgame": 1847,
      ".Form": 1848,
      "rows": 1849,
      "*/": 1850,
      "velop": 1851,
      ".Drawing": 1852,
      "Ġpath": 1853,
      "ision": 1854,
      "Ġeach": 1855,
      "ĠPl": 1856,
      "_type": 1857,
      "Path": 1858,
      "nection": 1859,
      "Ġav": 1860,
      "').": 1861,
      "Ġsupport": 1862,
      "ENT": 1863,
      "rem": 1864,
      "\").": 1865,
      "Ġown": 1866,
      "Ġcor": 1867,
      "count": 1868,
      "miss": 1869,
      "ually": 1870,
      "Ġmem": 1871,
      "std": 1872,
      "ience": 1873,
      "search": 1874,
      "\"ĊĊ": 1875,
      "Form": 1876,
      "Ġsex": 1877,
      "ename": 1878,
      "Ġsign": 1879,
      "Ġet": 1880,
      "ĠĠĠĠĠĠĠĠĠĠ": 1881,
      "','": 1882,
      "ĠApp": 1883,
      "Ġthose": 1884,
      "off": 1885,
      "Ġerr": 1886,
      "Ġsystem": 1887,
      "Ġbest": 1888,
      "code": 1889,
      "Ġsame": 1890,
      "Ġdi": 1891,
      "uss": 1892,
      "Ġcreate": 1893,
      "ather": 1894,
      "Array": 1895,
      ".in": 1896,
      "fe": 1897,
      "Service": 1898,
      "UN": 1899,
      "ats": 1900,
      "ĠZ": 1901,
      "alth": 1902,
      "Ġmade": 1903,
      "true": 1904,
      "AB": 1905,
      "Ġmark": 1906,
      "rid": 1907,
      "ified": 1908,
      ",čĊ": 1909,
      "yn": 1910,
      "press": 1911,
      "Ġgroup": 1912,
      "Ġfin": 1913,
      "ĠLicense": 1914,
      "Field": 1915,
      "eger": 1916,
      "Ġworld": 1917,
      "iness": 1918,
      "ty": 1919,
      "Ġprocess": 1920,
      "(b": 1921,
      "Ġcre": 1922,
      "arn": 1923,
      "ives": 1924,
      "Ġmain": 1925,
      "ideo": 1926,
      "36": 1927,
      "_g": 1928,
      "AG": 1929,
      "valid": 1930,
      "img": 1931,
      "PI": 1932,
      "Ġcolor": 1933,
      "Ġreport": 1934,
      "Ġtake": 1935,
      "rib": 1936,
      "OM": 1937,
      "Ġday": 1938,
      "Request": 1939,
      "Ġsk": 1940,
      "bers": 1941,
      "ĉs": 1942,
      ".Add": 1943,
      "oot": 1944,
      "Image": 1945,
      "Ġcomple": 1946,
      "ollection": 1947,
      "Ġtop": 1948,
      "Ġfree": 1949,
      "AS": 1950,
      "De": 1951,
      "ĠOn": 1952,
      "IG": 1953,
      "90": 1954,
      "eta": 1955,
      "Date": 1956,
      "Ġaction": 1957,
      "34": 1958,
      "Over": 1959,
      "itor": 1960,
      "ĠĠĠĠĠĠĠĠĠĠĠĠĠĠĠĠĠĠĠĠĠĠĠĠĠĠĠĠĠĠĠĠĠĠĠ": 1961,
      "not": 1962,
      "Ġindex": 1963,
      "her": 1964,
      "icon": 1965,
      "On": 1966,
      ";čĊčĊ": 1967,
      "ivity": 1968,
      "mand": 1969,
      ".Windows": 1970,
      "OL": 1971,
      "Ġreal": 1972,
      "Ġmax": 1973,
      "land": 1974,
      "....": 1975,
      "raph": 1976,
      "Ġbuild": 1977,
      "leg": 1978,
      "assword": 1979,
      "?ĊĊ": 1980,
      "âĢ¦": 1981,
      "ook": 1982,
      "uck": 1983,
      "Ġmessage": 1984,
      "test": 1985,
      "ivers": 1986,
      "38": 1987,
      "Ġinput": 1988,
      "Ġart": 1989,
      "Ġbetween": 1990,
      "Get": 1991,
      "enter": 1992,
      "ground": 1993,
      "ene": 1994,
      "Ã¡": 1995,
      ".length": 1996,
      "Node": 1997,
      "(i": 1998,
      "Class": 1999
    },
    "merges": [
      "Ġ Ġ",
      "Ġ ĠĠĠ",
      "ĠĠ ĠĠ",
      "ĠĠĠ Ġ",
      "i n",
      "Ġ t",
      "ĠĠĠĠ ĠĠĠĠ",
      "e r",
      "Ġ ĠĠ",
      "ĠĠ Ġ",
      "o n",
      "Ġ a",
      "r e",
      "a t",
      "s t",
      "e n",
      "o r",
      "Ġ th",
      "Ġt h",
      "Ċ Ċ",
      "Ġ c",
      "l e",
      "Ġ s",
      "i t",
      "a n",
      "a r",
      "a l",
      "Ġ the",
      "Ġt he",
      "Ġth e",
      "; Ċ",
      "Ġ p",
      "Ġ f",
      "o u",
      "Ġ =",
      "i s",
      "ĠĠĠĠ ĠĠĠ",
      "ĠĠĠ ĠĠĠĠ",
      "i ng",
      "in g",
      "e s",
      "Ġ w",
      "i on",
      "io n",
      "e d",
      "i c",
      "Ġ b",
      "Ġ d",
      "e t",
      "Ġ m",
      "Ġ o",
      "ĉ ĉ",
      "r o",
      "a s",
      "e l",
      "c t",
      "n d",
      "Ġ in",
      "Ġi n",
      "Ġ h",
      "e nt",
      "en t",
      "i d",
      "Ġ n",
      "a m",
      "ĠĠĠĠ ĠĠĠĠĠĠĠ",
      "ĠĠĠĠĠĠĠĠ ĠĠĠ",
      "ĠĠĠ ĠĠĠĠĠĠĠĠ",
      "ĠĠĠĠĠĠĠ ĠĠĠĠ",
      "Ġ to",
      "Ġt o",
      "Ġ re",
      "Ġr e",
      "- -",
      "Ġ {",
      "Ġ of",
      "Ġo f",
      "o m",
      ") ;Ċ",
      "); Ċ",
      "i m",
      "č Ċ",
      "Ġ (",
      "i l",
      "/ /",
      "Ġ and",
      "Ġa nd",
      "Ġan d",
      "u r",
      "s e",
      "Ġ l",
      "e x",
      "Ġ S",
      "a d",
      "Ġ \"",
      "c h",
      "u t",
      "i f",
      "* *",
      "Ġ }",
      "e m",
      "o l",
      "ĠĠĠĠĠĠĠĠ ĠĠĠĠĠĠĠĠ",
      "t h",
      ") Ċ",
      "Ġ {Ċ",
      "Ġ{ Ċ",
      "Ġ g",
      "i g",
      "i v",
      ", Ċ",
      "c e",
      "o d",
      "Ġ v",
      "a te",
      "at e",
      "Ġ T",
      "a g",
      "a y",
      "Ġ *",
      "o t",
      "u s",
      "Ġ C",
      "Ġ st",
      "Ġs t",
      "Ġ I",
      "u n",
      "u l",
      "u e",
      "Ġ A",
      "o w",
      "Ġ '",
      "e w",
      "Ġ <",
      "at ion",
      "( )",
      "Ġf or",
      "a b",
      "or t",
      "u m",
      "am e",
      "Ġ is",
      "Ġi s",
      "p e",
      "t r",
      "c k",
      "â Ģ",
      "Ġ y",
      "i st",
      "is t",
      "-- --",
      ". ĊĊ",
      ".Ċ Ċ",
      "h e",
      "Ġ e",
      "l o",
      "Ġ M",
      "Ġ be",
      "Ġb e",
      "er s",
      "Ġ on",
      "Ġo n",
      "Ġ con",
      "Ġc on",
      "Ġco n",
      "a p",
      "u b",
      "Ġ P",
      "ĠĠĠĠ ĠĠĠĠĠĠĠĠĠĠĠ",
      "ĠĠĠĠĠĠĠĠ ĠĠĠĠĠĠĠ",
      "ĠĠĠĠĠĠĠ ĠĠĠĠĠĠĠĠ",
      "ĠĠĠĠĠĠĠĠĠĠĠ ĠĠĠĠ",
      "a ss",
      "as s",
      "i nt",
      "in t",
      "> Ċ",
      "l y",
      "ur n",
      "Ġ $",
      "; ĊĊ",
      ";Ċ Ċ",
      "a v",
      "p ort",
      "i r",
      "- >",
      "n t",
      "ct ion",
      "e nd",
      "en d",
      "Ġ de",
      "Ġd e",
      "0 0",
      "i th",
      "it h",
      "o ut",
      "ou t",
      "t urn",
      "o ur",
      "ou r",
      "Ġ ĠĠĠĠ",
      "ĠĠ ĠĠĠ",
      "ĠĠĠĠ Ġ",
      "ĠĠĠ ĠĠ",
      "l ic",
      "li c",
      "r es",
      "re s",
      "p t",
      "= =",
      "Ġth is",
      "Ġ wh",
      "Ġw h",
      "Ġ if",
      "Ġi f",
      "Ġ D",
      "v er",
      "ve r",
      "a ge",
      "ag e",
      "Ġ B",
      "h t",
      "ex t",
      "= \"",
      "Ġth at",
      "** **",
      "Ġ R",
      "Ġ it",
      "Ġi t",
      "e ss",
      "es s",
      "Ġ F",
      "Ġ r",
      "o s",
      "a nd",
      "an d",
      "Ġ as",
      "Ġa s",
      "e ct",
      "ec t",
      "k e",
      "r om",
      "ro m",
      "Ġ //",
      "Ġ/ /",
      "c on",
      "co n",
      "Ġ L",
      "( \"",
      "q u",
      "l ass",
      "Ġw ith",
      "i z",
      "d e",
      "Ġ N",
      "Ġ al",
      "Ġa l",
      "o p",
      "u p",
      "g et",
      "ge t",
      "Ġ }Ċ",
      "Ġ} Ċ",
      "i le",
      "il e",
      "Ġ an",
      "Ġa n",
      "at a",
      "o re",
      "or e",
      "r i",
      "Ġ pro",
      "Ġp ro",
      "Ġpr o",
      "; čĊ",
      "ĉ ĉĉĉ",
      "ĉĉ ĉĉ",
      "ĉĉĉ ĉ",
      "t er",
      "te r",
      "a in",
      "Ġ W",
      "Ġ E",
      "Ġ com",
      "Ġc om",
      "Ġco m",
      "Ġre turn",
      "ar t",
      "Ġ H",
      "a ck",
      "ac k",
      "im port",
      "ub lic",
      "Ġ or",
      "Ġo r",
      "e st",
      "es t",
      "m ent",
      "Ġ G",
      "a ble",
      "ab le",
      "Ġ -",
      "i ne",
      "in e",
      "i ll",
      "il l",
      "i nd",
      "in d",
      "e re",
      "er e",
      ": :",
      "i ty",
      "it y",
      "Ġ +",
      "Ġ tr",
      "Ġt r",
      "el f",
      "ig ht",
      "igh t",
      "( '",
      "or m",
      "ul t",
      "s tr",
      "st r",
      ". .",
      "\" ,",
      "Ġy ou",
      "y pe",
      "yp e",
      "p l",
      "Ġ new",
      "Ġn ew",
      "Ġne w",
      "Ġ j",
      "ĠĠĠĠ ĠĠĠĠĠĠĠĠĠĠĠĠĠĠĠ",
      "ĠĠĠĠĠĠĠĠ ĠĠĠĠĠĠĠĠĠĠĠ",
      "ĠĠĠ ĠĠĠĠĠĠĠĠĠĠĠĠĠĠĠĠ",
      "ĠĠĠĠĠĠĠĠĠĠĠ ĠĠĠĠĠĠĠĠ",
      "ĠĠĠĠĠĠĠĠĠĠĠĠĠĠĠĠ ĠĠĠ",
      "ĠĠĠĠĠĠĠĠĠĠĠĠĠĠĠ ĠĠĠĠ",
      "Ġf rom",
      "Ġfr om",
      "Ġ ex",
      "Ġe x",
      "Ġ O",
      "2 0",
      "l d",
      "Ġ [",
      "o c",
      ": Ċ",
      "Ġ se",
      "Ġs e",
      "Ġ le",
      "Ġl e",
      "---- ----",
      ". s",
      "{ Ċ",
      "' ,",
      "a nt",
      "an t",
      "Ġ at",
      "Ġa t",
      "a se",
      "as e",
      ". c",
      "Ġ ch",
      "Ġc h",
      "< /",
      "a ve",
      "av e",
      "a ng",
      "an g",
      "Ġ are",
      "Ġa re",
      "Ġar e",
      "Ġ int",
      "Ġin t",
      "Ġi nt",
      "âĢ Ļ",
      "_ t",
      "er t",
      "i al",
      "ia l",
      "a ct",
      "ac t",
      "} Ċ",
      "i ve",
      "iv e",
      "o de",
      "od e",
      "o st",
      "os t",
      "Ġc lass",
      "Ġcl ass",
      "Ġ not",
      "Ġn ot",
      "Ġno t",
      "o g",
      "or d",
      "al ue",
      "a ll",
      "al l",
      "f f",
      "( );Ċ",
      "() ;Ċ",
      "o nt",
      "on t",
      "im e",
      "a re",
      "ar e",
      "Ġ U",
      "Ġ pr",
      "Ġp r",
      "Ġ :",
      "i es",
      "ie s",
      "iz e",
      "u re",
      "ur e",
      "Ġ by",
      "Ġb y",
      "i re",
      "ir e",
      "Ġ }ĊĊ",
      "Ġ} ĊĊ",
      "Ġ}Ċ Ċ",
      ". p",
      "Ġ sh",
      "Ġs h",
      "i ce",
      "ic e",
      "a st",
      "as t",
      "pt ion",
      "tr ing",
      "o k",
      "_ _",
      "c l",
      "# #",
      "Ġ he",
      "Ġh e",
      "ar d",
      ") .",
      "Ġ @",
      "i ew",
      "ie w",
      "ĉ ĉĉ",
      "ĉĉ ĉ",
      "Ġw as",
      "i p",
      "th is",
      "Ġ u",
      "Ġ The",
      "ĠT he",
      "ĠTh e",
      "i de",
      "id e",
      "a ce",
      "ac e",
      "i b",
      "a c",
      "r ou",
      "ro u",
      "Ġ we",
      "Ġw e",
      "j ect",
      "Ġp ublic",
      "a k",
      "v e",
      "a th",
      "at h",
      "o id",
      "Ġ= >",
      "u st",
      "us t",
      "q ue",
      "qu e",
      "Ġ res",
      "Ġre s",
      "Ġr es",
      ") )",
      "' s",
      "Ġ k",
      "an s",
      "y st",
      "ys t",
      "un ction",
      "**** ****",
      "Ġ i",
      "Ġ us",
      "Ġu s",
      "p p",
      "1 0",
      "o ne",
      "on e",
      "a il",
      "== ==",
      "n ame",
      "Ġ str",
      "Ġs tr",
      "Ġst r",
      "Ġ /",
      "Ġ &",
      "a ch",
      "ac h",
      "d iv",
      "yst em",
      "ys tem",
      "e ll",
      "el l",
      "Ġh ave",
      "e rr",
      "er r",
      "ou ld",
      "u ll",
      "ul l",
      "p on",
      "Ġ J",
      "_ p",
      "Ġ ==",
      "Ġ= =",
      "ig n",
      "S t",
      ". Ċ",
      "Ġ pl",
      "Ġp l",
      ") ;ĊĊ",
      ");Ċ Ċ",
      "); ĊĊ",
      "f orm",
      "p ut",
      "ou nt",
      "oun t",
      "} ĊĊ",
      "}Ċ Ċ",
      "d d",
      "i te",
      "it e",
      "Ġ get",
      "Ġg et",
      "r r",
      "om e",
      "Ġ âĢ",
      "ar am",
      "c c",
      "Ġ */",
      "Ġ* /",
      "E R",
      "I n",
      "l es",
      "le s",
      "_ s",
      "o ng",
      "on g",
      "i e",
      "Ġc an",
      "Ġ V",
      "er v",
      "p r",
      "Ġ un",
      "Ġu n",
      "r ow",
      "ro w",
      "b er",
      "be r",
      "Ġd o",
      "l l",
      "Ġ el",
      "Ġe l",
      "Ġs elf",
      "at ed",
      "ate d",
      "a ry",
      "ar y",
      "Ġ .",
      "' ]",
      "u d",
      "Ġ en",
      "Ġe n",
      "Ġ Th",
      "ĠT h",
      "ĠĠĠĠ ĠĠĠĠĠĠĠĠĠĠĠĠĠĠĠĠĠĠĠ",
      "ĠĠĠĠĠĠĠĠ ĠĠĠĠĠĠĠĠĠĠĠĠĠĠĠ",
      "ĠĠĠĠĠĠĠ ĠĠĠĠĠĠĠĠĠĠĠĠĠĠĠĠ",
      "ĠĠĠĠĠĠĠĠĠĠĠĠĠĠĠĠ ĠĠĠĠĠĠĠ",
      "ĠĠĠĠĠĠĠĠĠĠĠĠĠĠĠ ĠĠĠĠĠĠĠĠ",
      "ĠĠĠĠĠĠĠĠĠĠĠĠĠĠĠĠĠĠĠ ĠĠĠĠ",
      "t e",
      "_ c",
      "u ct",
      "uc t",
      "Ġ ab",
      "Ġa b",
      "or k",
      ". get",
      ".g et",
      "Ġ #",
      "a w",
      "r ess",
      "re ss",
      "res s",
      "o b",
      "N ame",
      "2 01",
      "20 1",
      "a pp",
      "ap p",
      "[ '",
      "Ġ all",
      "Ġa ll",
      "Ġal l",
      "o ry",
      "or y",
      "it ion",
      "an ce",
      "anc e",
      "e ar",
      "Ġc ont",
      "Ġcon t",
      "Ġco nt",
      "v ent",
      "ve nt",
      "ven t",
      "i a",
      "Ġw ill",
      "I N",
      "Ġ ĠĠĠĠĠĠĠĠ",
      "ĠĠ ĠĠĠĠĠĠĠ",
      "ĠĠĠĠ ĠĠĠĠĠ",
      "ĠĠĠĠĠĠĠĠ Ġ",
      "ĠĠĠĠĠĠĠ ĠĠ",
      "ĠĠĠĠĠ ĠĠĠĠ",
      "re turn",
      "Ġ </",
      "Ġ< /",
      "d ata",
      ") ĊĊ",
      ")Ċ Ċ",
      "R e",
      "p le",
      "pl e",
      "i ld",
      "il d",
      "t her",
      "th er",
      "the r",
      "Ġy our",
      "Ġyou r",
      "\" Ċ",
      "( $",
      "Ġ out",
      "Ġo ut",
      ") ,",
      "Ġh as",
      "S tring",
      "s o",
      "Ġ up",
      "Ġu p",
      "a x",
      "Ġ def",
      "Ġd ef",
      "Ġde f",
      "Ġ bo",
      "Ġb o",
      "g e",
      "al se",
      "als e",
      "O N",
      "p er",
      "pe r",
      "1 2",
      "i ch",
      "ic h",
      "Ġb ut",
      "Ġbu t",
      "Ġ Ċ",
      "Ġ _",
      "_ m",
      "a dd",
      "ad d",
      "qu est",
      "que st",
      "od el",
      "ode l",
      "s elf",
      "e ry",
      "er y",
      "f t",
      "en s",
      "// //",
      "a ke",
      "ak e",
      ". C",
      "Ġg o",
      "Ġf unction",
      "Ġ K",
      "iv ate",
      "Ġ im",
      "Ġi m",
      "Ġcon st",
      ". t",
      "Ġ*/ Ċ",
      ") ;čĊ",
      "); čĊ",
      "Ġv oid",
      "Ġ set",
      "Ġs et",
      "Ġse t",
      "ĠS ystem",
      "c ri",
      "( )Ċ",
      "() Ċ",
      "l i",
      "ĉ if",
      ". m",
      "al ly",
      "all y",
      "s et",
      "se t",
      "e p",
      "âĢĻ s",
      "b o",
      "d ef",
      "de f",
      "' ,Ċ",
      "', Ċ",
      "Ġm e",
      "Ġ !",
      "at ch",
      "\" >",
      "\" ,Ċ",
      "\", Ċ",
      "e c",
      "Ġ In",
      "ĠI n",
      "p h",
      "Ġ |",
      "_ f",
      "Ġ var",
      "Ġv ar",
      "en ce",
      "enc e",
      "I d",
      "re e",
      "in k",
      "l ect",
      "le ct",
      "u g",
      "e th",
      "et h",
      "Ġel se",
      "-------- --------",
      "1 9",
      "c ont",
      "con t",
      "co nt",
      "Ġ so",
      "Ġs o",
      "at ic",
      "Ġ lo",
      "Ġl o",
      "p ro",
      "pr o",
      "t on",
      "to n",
      "s s",
      "o wn",
      "ow n",
      "ab el",
      "o int",
      "o us",
      "ou s",
      "e ld",
      "el d",
      "S T",
      "T he",
      "Th e",
      "ĠĠĠĠĠĠĠĠĠĠĠĠĠĠĠĠ ĠĠĠĠĠĠĠĠĠĠĠĠĠĠĠĠ",
      "ĠĠĠĠĠĠĠĠĠĠĠĠĠĠĠĠĠĠĠĠĠĠĠ ĠĠĠĠĠĠĠĠĠ",
      "ĠĠĠĠĠĠĠĠĠ ĠĠĠĠĠĠĠĠĠĠĠĠĠĠĠĠĠĠĠĠĠĠĠ",
      "R E",
      "\" :",
      "ol or",
      "t p",
      "e g",
      "k ey",
      "ke y",
      "u de",
      "ud e",
      "Ġ St",
      "ĠS t",
      "o und",
      "ou nd",
      "oun d",
      "Ġ ar",
      "Ġa r",
      "\" );Ċ",
      "\") ;Ċ",
      "e ner",
      "en er",
      "ene r",
      "s er",
      "se r",
      "1 1",
      "b ject",
      "ess age",
      "f er",
      "fe r",
      "Ġm ore",
      "ation s",
      "ent s",
      "Ġh is",
      "Ġth ey",
      "Ġthe y",
      ". S",
      "Ġ Y",
      "u se",
      "us e",
      "n e",
      "i sh",
      "is h",
      "o ld",
      "ol d",
      "_ d",
      "i o",
      "i eld",
      "ie ld",
      "Ġ per",
      "Ġp er",
      "Ġpe r",
      "C ont",
      "Con t",
      "ing s",
      "## ##",
      "Ġ data",
      "Ġd ata",
      "Ġs a",
      "e f",
      "f o",
      "Ġ one",
      "Ġo ne",
      "Ġon e",
      "e ng",
      "en g",
      "Ġd is",
      "Ġdi s",
      "A T",
      "Ġ name",
      "Ġn ame",
      "Ġtr ue",
      "v al",
      "l ed",
      "le d",
      ". f",
      "Ġ ne",
      "Ġn e",
      "Ġ end",
      "Ġe nd",
      "Ġen d",
      "3 2",
      ". T",
      "1 6",
      "c re",
      "ar k",
      "l og",
      "lo g",
      "E x",
      "err or",
      "_ id",
      "ur re",
      "an ge",
      "ang e",
      "Ġn ull",
      "rr ay",
      "Ġm y",
      "p an",
      "i ct",
      "ic t",
      "at or",
      "V iew",
      "L ist",
      "ĉ return",
      "âĢ Ŀ",
      "Ġ pre",
      "Ġp re",
      "Ġpr e",
      "Ġ x",
      "cl ude",
      "ar g",
      "1 5",
      "o v",
      ". h",
      "Ġ >",
      "Ġthe ir",
      "' )",
      "ir st",
      "i ck",
      "ic k",
      "g h",
      "L E",
      "O R",
      "Ġpr ivate",
      "t em",
      "te m",
      "čĊ čĊ",
      "u ser",
      "us er",
      "use r",
      "Ġ )",
      "c om",
      "co m",
      ". A",
      "\" ;Ċ",
      "Ġ id",
      "Ġi d",
      "re ad",
      "Ġwh o",
      "_ b",
      "\" >Ċ",
      "\"> Ċ",
      "Ġt ime",
      "Ġ man",
      "Ġm an",
      "r y",
      "==== ====",
      "ro up",
      "rou p",
      "r op",
      "ro p",
      "p ublic",
      "v el",
      "ve l",
      "um ber",
      "b le",
      "Ġwh ich",
      "******** ********",
      "Ġan y",
      "Ġf alse",
      "w e",
      "Ġv alue",
      "Ġ li",
      "Ġl i",
      "\" )",
      "n der",
      "nd er",
      "g r",
      "Ġn o",
      "p aram",
      "par am",
      "2 5",
      "f ig",
      ". com",
      ".c om",
      "Ġ app",
      "Ġa pp",
      "Ġap p",
      "_ l",
      "ion s",
      ". D",
      "Ġ Ch",
      "ĠC h",
      "Ġab out",
      "Ġ add",
      "Ġa dd",
      "Ġad d",
      "Ġs u",
      "Ġs tring",
      "Ġstr ing",
      "I D",
      "Ġo ver",
      "s tring",
      "str ing",
      ". l",
      "our ce",
      "0 00",
      "00 0",
      "_ C",
      "] Ċ",
      "Ġ qu",
      "Ġ String",
      "ĠS tring",
      "c a",
      "S E",
      "Ġ ro",
      "Ġr o",
      "s h",
      "u al",
      "T ype",
      "s on",
      "so n",
      "n ew",
      "ne w",
      "er n",
      "Ġ ag",
      "Ġa g",
      "A R",
      "] ;Ċ",
      "] .",
      "Ġ ?",
      "ic al",
      "Ġd es",
      "Ġde s",
      "u th",
      "ut h",
      "i x",
      "a ys",
      "ay s",
      "Ġt ype",
      "' t",
      "a ult",
      "Ġin ter",
      "Ġint er",
      "v ar",
      ". b",
      "Ġp art",
      ". d",
      "urre nt",
      "I T",
      "E N",
      "3 0",
      "e nc",
      "en c",
      "( f",
      "r a",
      "v alue",
      "val ue",
      "ch o",
      "1 8",
      "ut ton",
      "o se",
      "os e",
      "1 4",
      "Ġ! =",
      "a ter",
      "at er",
      "ate r",
      "Ã ©",
      "re ate",
      "o ll",
      "ol l",
      "p os",
      "y le",
      "n g",
      "A L",
      "us ing",
      "am es",
      "ame s",
      "Ġ {čĊ",
      "Ġ{ čĊ",
      "at es",
      "ate s",
      "e ly",
      "el y",
      "Ġw ork",
      "Ġ em",
      "Ġe m",
      "in al",
      "Ġs p",
      "Ġwh en",
      ". set",
      ".s et",
      "Ġ ĠĠĠĠĠ",
      "ĠĠ ĠĠĠĠ",
      "ĠĠĠĠ ĠĠ",
      "ĠĠĠ ĠĠĠ",
      "ĠĠĠĠĠ Ġ",
      ") :Ċ",
      "): Ċ",
      "t o",
      "qu ire",
      "ind ow",
      "le ment",
      "p ect",
      "pe ct",
      "pec t",
      "a sh",
      "as h",
      "[ i",
      "Ġ use",
      "Ġu se",
      "Ġus e",
      ". F",
      "p ec",
      "pe c",
      "Ġ ad",
      "Ġa d",
      "o ve",
      "ov e",
      "ce ption",
      "eng th",
      "in clude",
      "a der",
      "ad er",
      "ade r",
      "ĠĠĠĠ ĠĠĠĠĠĠĠĠĠĠĠĠĠĠĠĠĠĠĠĠĠĠĠ",
      "ĠĠĠĠĠĠĠĠ ĠĠĠĠĠĠĠĠĠĠĠĠĠĠĠĠĠĠĠ",
      "ĠĠĠĠĠĠĠĠĠĠĠ ĠĠĠĠĠĠĠĠĠĠĠĠĠĠĠĠ",
      "ĠĠĠĠĠĠĠĠĠĠĠĠĠĠĠĠ ĠĠĠĠĠĠĠĠĠĠĠ",
      "ĠĠĠĠĠĠĠĠĠĠĠĠĠĠĠĠĠĠĠ ĠĠĠĠĠĠĠĠ",
      "ĠĠĠĠĠĠĠĠĠĠĠĠĠĠĠĠĠĠĠĠĠĠĠ ĠĠĠĠ",
      "at us",
      "T h",
      "it le",
      "r it",
      "ri t",
      "v oid",
      "( ).",
      "() .",
      "( Ċ",
      "Ġ off",
      "Ġo ff",
      "Ġof f",
      "Ġo ther",
      "Ġ& &",
      "' ;Ċ",
      "m s",
      "Ġbe en",
      "Ġ te",
      "Ġt e",
      "m l",
      "c o",
      "n c",
      "1 3",
      "erv ice",
      "Ġ %",
      "** Ċ",
      "an n",
      "a de",
      "ad e",
      "Ċ ĊĊĊ",
      "ĊĊ ĊĊ",
      "ĊĊĊ Ċ",
      "l ock",
      "lo ck",
      "loc k",
      "con st",
      "1 00",
      "10 0",
      "pon se",
      "Ġs up",
      "Ġsu p",
      "+ +",
      "d ate",
      "Ġa cc",
      "Ġac c",
      "Ġh ad",
      "Ġb u",
      "2 00",
      "20 0",
      "Ġ Re",
      "ĠR e",
      "Ġw ere",
      "Ġwe re",
      "Ġf ile",
      "Ġw ould",
      "ĠâĢ ľ",
      "v en",
      "ve n",
      "i ss",
      "is s",
      "Ġ our",
      "Ġo ur",
      "c lass",
      "cl ass",
      "r aw",
      "ra w",
      "Ġy ear",
      "D ata",
      "Ġ val",
      "Ġv al",
      "Ġs ome",
      "f ter",
      "ft er",
      "y s",
      "Ġ// /",
      "Ġ/ //",
      "r ound",
      "ro und",
      "rou nd",
      "v iew",
      "Ġ pe",
      "Ġp e",
      "Ġth ere",
      "Ġthe re",
      "Ġsa id",
      "d u",
      "o f",
      "l ine",
      "li ne",
      "/ *",
      "d uct",
      "du ct",
      "Ġ her",
      "Ġh er",
      "Ġhe r",
      "ĠĠ ĠĠĠĠĠĠĠĠĠĠĠ",
      "ĠĠĠĠ ĠĠĠĠĠĠĠĠĠ",
      "ĠĠĠĠĠĠĠĠ ĠĠĠĠĠ",
      "ĠĠĠĠĠĠĠ ĠĠĠĠĠĠ",
      "ĠĠĠĠĠĠĠĠĠĠĠ ĠĠ",
      "ĠĠĠĠĠ ĠĠĠĠĠĠĠĠ",
      "ĠĠĠĠĠĠĠĠĠ ĠĠĠĠ",
      "ĠĠĠĠĠĠ ĠĠĠĠĠĠĠ",
      "R es",
      "Re s",
      "Ġ co",
      "Ġc o",
      "Ġcom m",
      "i se",
      "is e",
      "m in",
      "ĠĠĠĠ Ċ",
      "ĠĠĠ ĠĊ",
      "# include",
      "eth od",
      ". P",
      "u te",
      "ut e",
      "Ġ ass",
      "Ġa ss",
      "Ġas s",
      "I nt",
      "In t",
      "as k",
      "l oc",
      "lo c",
      "Ġli ke",
      "od y",
      "Ġ let",
      "Ġl et",
      "Ġle t",
      "lo ad",
      "Ġ am",
      "Ġa m",
      "r ol",
      "ro l",
      "Ġ gr",
      "Ġg r",
      "y p",
      "Ġal so",
      "ĠI t",
      "ur l",
      "if ic",
      "or s",
      "_ P",
      "_ n",
      "i gh",
      "ig h",
      "Ġth an",
      "C om",
      "A N",
      "U L",
      "at ing",
      "1 7",
      "ĠTh is",
      "r ef",
      "re f",
      "_ S",
      "Ġst atic",
      "r oll",
      "ro ll",
      "rol l",
      "Ġj ust",
      "Ġres ult",
      "i an",
      "ia n",
      "id th",
      "Ġth em",
      "Ġthe m",
      ") );Ċ",
      ")) ;Ċ",
      "d er",
      "de r",
      "re ak",
      "C on",
      ": //",
      "u le",
      "ul e",
      ". ..",
      ".. .",
      "ar ch",
      "e ment",
      "em ent",
      "Ġ< <",
      "5 0",
      "u sh",
      "us h",
      "en se",
      "ens e",
      "a rr",
      "ar r",
      "Ġin to",
      "Ġint o",
      "c ess",
      "ce ss",
      "ces s",
      "a mp",
      "am p",
      "i ed",
      "ie d",
      "u ment",
      "um ent",
      "Ġ \\",
      "] ,",
      "w o",
      "al s",
      "Ġwh at",
      "a nc",
      "an c",
      "V alue",
      "= '",
      "ol um",
      "Ġ pos",
      "Ġp os",
      "ag es",
      "age s",
      "ay er",
      "Ġs c",
      "u es",
      "ue s",
      "\" )Ċ",
      "\") Ċ",
      "_ T",
      "Ġl ist",
      "Ġli st",
      "( s",
      "Ġc ase",
      "C h",
      "ĉ ĉĉĉĉ",
      "ĉĉ ĉĉĉ",
      "ĉĉĉĉ ĉ",
      "ĉĉĉ ĉĉ",
      "//// ////",
      "pon ent",
      "Ġ z",
      "Ġk n",
      "l et",
      "le t",
      "D E",
      "r ed",
      "re d",
      "Ġ fe",
      "Ġf e",
      "Ġ },Ċ",
      "Ġ} ,Ċ",
      "Ġ ,",
      "( t",
      "Ġf irst",
      "' );Ċ",
      "') ;Ċ",
      "w ord",
      "Ġ import",
      "Ġim port",
      "Ġ act",
      "Ġa ct",
      "Ġac t",
      "Ġch ar",
      "C T",
      "Ġ Tr",
      "ĠT r",
      "o ple",
      "op le",
      "= {",
      "ĉ f",
      "2 4",
      "i ent",
      "ie nt",
      "c ent",
      "ce nt",
      ". j",
      "le ction",
      "lect ion",
      ") )Ċ",
      ")) Ċ",
      "Ġon ly",
      "Ġpr int",
      "m er",
      ". W",
      "o ck",
      "oc k",
      "Ġ --",
      "Ġ- -",
      "T ext",
      "Ġ op",
      "Ġo p",
      "an k",
      "Ġ its",
      "Ġit s",
      "Ġb ack",
      "[ \"",
      "Ġne ed",
      "Ġ cl",
      "Ġc l",
      "Ġs ub",
      "Ġsu b",
      "Ġl a",
      "( (",
      ". \"",
      "O bject",
      "Ġst art",
      "f ile",
      "( self",
      "(s elf",
      "n er",
      "ne r",
      "e y",
      "Ġ user",
      "Ġu ser",
      "Ġus er",
      "Ġuse r",
      "Ġ ent",
      "Ġe nt",
      "Ġen t",
      "Ġ Com",
      "ĠC om",
      "it s",
      "Ġ Con",
      "ĠC on",
      "ou ble",
      "ow er",
      "i tem",
      "it em",
      "ite m",
      "v ery",
      "ver y",
      "ve ry",
      "Ġ We",
      "ĠW e",
      "6 4",
      "l ick",
      "lic k",
      "li ck",
      "Ġ Q",
      "ph p",
      "t tp",
      "' :",
      "ic s",
      "Ġu nder",
      "Ġun der",
      "Ġ* Ċ",
      ". L",
      ") ;",
      "i ces",
      "ic es",
      "ice s",
      "Ġ reg",
      "Ġre g",
      "Ġr eg",
      ") čĊ",
      "ĉ public",
      "S S",
      "Ġth en",
      "Ġthe n",
      "re at",
      "i ous",
      "io us",
      ". G",
      "e k",
      "ir ect",
      "ire ct",
      "he ck",
      "cri pt",
      "n ing",
      "Ġ Un",
      "ĠU n",
      "Ġm ay",
      "Ġ Wh",
      "ĠW h",
      "B o",
      "I tem",
      "str uct",
      ". st",
      ".s t",
      "re am",
      "i ble",
      "ib le",
      "lo at",
      "Ġ org",
      "Ġor g",
      "u nd",
      "un d",
      "s um",
      "_ in",
      ". ./",
      ".. /",
      "_ M",
      "Ġh ow",
      "r ite",
      "ri te",
      "rit e",
      "' Ċ",
      "T o",
      "4 0",
      "w w",
      "Ġpe ople",
      "ind ex",
      ". n",
      "h ttp",
      "ht tp",
      "( m",
      "ect or",
      "Ġ ind",
      "Ġin d",
      "Ġi nd",
      "Ġj av",
      "] ,Ċ",
      "], Ċ",
      "Ġ He",
      "ĠH e",
      "_ st",
      "_s t",
      "f ul",
      "o le",
      "ol e",
      ") {Ċ",
      "Ġsh ould",
      "op y",
      "el p",
      "i er",
      "ie r",
      "_ name",
      "_n ame",
      "er son",
      "ers on",
      "I ON",
      "o te",
      "ot e",
      "Ġt est",
      "Ġte st",
      "Ġb et",
      "Ġbe t",
      "rr or",
      "ul ar",
      "ã Ģ",
      "Ġ Ð",
      "b s",
      "t ing",
      "Ġm ake",
      "T r",
      "Ġa fter",
      "ar get",
      "arg et",
      "R O",
      "olum n",
      "r c",
      "_ re",
      "_r e",
      "def ine",
      "2 2",
      "Ġr ight",
      "r ight",
      "d ay",
      "Ġl ong",
      "Ġlo ng",
      "[ ]",
      "( p",
      "t d",
      "con d",
      "co nd",
      "Ġ Pro",
      "ĠP ro",
      "Ġ rem",
      "Ġre m",
      "Ġr em",
      "pt ions",
      "ption s",
      "v id",
      ". g",
      "Ġ ext",
      "Ġex t",
      "Ġ __",
      "Ġ_ _",
      "' )Ċ",
      "') Ċ",
      "p ace",
      "m p",
      "Ġ min",
      "Ġm in",
      "st ance",
      "a ir",
      "a ction",
      "act ion",
      "w h",
      "t ype",
      "ty pe",
      "u til",
      "ut il",
      "a it",
      "< ?",
      "I C",
      "t ext",
      "Ġ ph",
      "Ġp h",
      "Ġ fl",
      "Ġf l",
      ". M",
      "c cess",
      "cc ess",
      "b r",
      "f ore",
      "fo re",
      "ers ion",
      ") ,Ċ",
      "), Ċ",
      ". re",
      ".r e",
      "at eg",
      "ate g",
      "Ġ loc",
      "Ġl oc",
      "Ġlo c",
      "in s",
      "- s",
      "t rib",
      "tr ib",
      "Ġ Int",
      "ĠI nt",
      "ĠIn t",
      "Ġa rray",
      ", \"",
      "P ro",
      "( c",
      "ess ion",
      "> ĊĊ",
      ">Ċ Ċ",
      "Ġs he",
      "Ġsh e",
      "\" ]",
      "a ph",
      "ap h",
      "Ġex p",
      "er ty",
      "ert y",
      "Ġ Se",
      "ĠS e",
      "Ġ par",
      "Ġp ar",
      "u nc",
      "un c",
      "E T",
      "Ġ read",
      "Ġre ad",
      "pr int",
      "Ġre l",
      "Ġr el",
      "Ġ form",
      "Ġf orm",
      "Ġfor m",
      "Ġd r",
      "Ex ception",
      "in put",
      "Ġtr ans",
      "#### ####",
      "or der",
      "ord er",
      "B y",
      "Ġ aw",
      "Ġa w",
      "it ies",
      "u ff",
      "uf f",
      "pl ay",
      ". add",
      "ĠâĢ ĵ",
      "Ġw ant",
      "Ġcom p",
      "Ġco mp",
      "m ents",
      "ment s",
      "Ġ| |",
      "a z",
      "b e",
      "Ġn umber",
      "Ġre quire",
      "Ġ Ex",
      "ĠE x",
      "6 0",
      "Ġc ol",
      "Ġco l",
      "Ġ key",
      "Ġk ey",
      "em ber",
      "Ġt wo",
      "Ġs ize",
      "Ġwh ere",
      "U T",
      "res ult",
      "ĠĠĠĠ ĠĠĠĠĠĠĠĠĠĠĠĠĠĠĠĠĠĠĠĠĠĠĠĠĠĠĠ",
      "ĠĠĠĠĠĠĠĠ ĠĠĠĠĠĠĠĠĠĠĠĠĠĠĠĠĠĠĠĠĠĠĠ",
      "ĠĠĠĠĠĠĠĠĠĠĠĠĠĠĠĠ ĠĠĠĠĠĠĠĠĠĠĠĠĠĠĠ",
      "ĠĠĠĠĠĠĠĠĠĠĠĠĠĠĠ ĠĠĠĠĠĠĠĠĠĠĠĠĠĠĠĠ",
      "ĠĠĠĠĠĠĠĠĠĠĠĠĠĠĠĠĠĠĠĠĠĠĠ ĠĠĠĠĠĠĠĠ",
      "ĠĠĠĠĠĠĠĠĠĠĠĠĠĠĠĠĠĠĠĠĠĠĠĠĠĠĠ ĠĠĠĠ",
      "ou gh",
      "or ld",
      "o od",
      "u ch",
      "uc h",
      "at ive",
      "g er",
      "ge r",
      "ar ent",
      "are nt",
      "Ġ /*",
      "Ġ/ *",
      "Ġ arg",
      "Ġar g",
      "Ġwh ile",
      "2 3",
      "( this",
      "Ġre c",
      "Ġr ec",
      "Ġd if",
      "Ġdi f",
      "St ate",
      "Ġs pec",
      "Ġsp ec",
      "r ide",
      "ri de",
      "rid e",
      "_ F",
      "Ġl ook",
      "Ġlo ok",
      "A M",
      "il ity",
      "e ter",
      "et er",
      "âĢĻ t",
      "Ċ ĊĊ",
      "ĊĊ Ċ",
      "ay out",
      "---------------- ----------------",
      "a ger",
      "ag er",
      "age r",
      "Ġc ould",
      "Ġ br",
      "Ġb r",
      "end s",
      "u res",
      "ur es",
      "ure s",
      "Ġkn ow",
      "et s",
      "ĠI f",
      "ĠS h",
      ". w",
      "b ack",
      "Ġ ser",
      "Ġs er",
      "Ġse r",
      "Ġ+ =",
      "Ġ fr",
      "Ġf r",
      "( ));Ċ",
      "() );Ċ",
      "Ġh and",
      "I nd",
      "In d",
      "UL L",
      "I m",
      "( );ĊĊ",
      "() ;ĊĊ",
      "();Ċ Ċ",
      "Ġm ost",
      "Ġ try",
      "Ġt ry",
      "Ġtr y",
      "Ġn ow",
      "Ġno w",
      "r ough",
      "rou gh",
      "> čĊ",
      "ack age",
      "Ġh im",
      ". _",
      "if y",
      "Ġb reak",
      "Ġ );Ċ",
      "Ġ) ;Ċ",
      "r en",
      "re n",
      "# define",
      "it t",
      "Ġ ap",
      "Ġa p",
      "ĉ c",
      "( n",
      "ĠY ou",
      ": ĊĊ",
      ":Ċ Ċ",
      "- m",
      "Ġe very",
      "ust om",
      "l ient",
      "li ent",
      "oc ument",
      "cri ption",
      "cript ion",
      "E rror",
      "- b",
      "Ð ¾",
      "] [",
      "9 9",
      "tr ans",
      "Ġp oint",
      "Ġ std",
      "Ġs td",
      "Ġst d",
      "Ġf il",
      "T ime",
      "8 0",
      "Ġm od",
      "Ġ ->",
      "Ġ- >",
      "Ġ error",
      "Ġe rror",
      "a h",
      "Ġ text",
      "Ġt ext",
      "rol ler",
      "roll er",
      "l ose",
      "lo se",
      "q l",
      "Ġp ol",
      "> </",
      ">< /",
      "Ġsh ow",
      "U ser",
      "as ed",
      "ase d",
      "Ġ{ ĊĊ",
      "Ġ{Ċ Ċ",
      "Ġf ind",
      "Ð °",
      "E D",
      "s pan",
      "en u",
      "Ġc urrent",
      "Ġus ed",
      "Ġuse d",
      "ce pt",
      "cl ud",
      "Ġ play",
      "Ġpl ay",
      "Ġ log",
      "Ġl og",
      "Ġlo g",
      "ut ion",
      "f l",
      "Ġse e",
      "indow s",
      "Ġh elp",
      "Ġthe se",
      "Ġp ass",
      "Ġd own",
      "Ġdo wn",
      "Ġe ven",
      "a son",
      "as on",
      "u ild",
      "f rom",
      "fr om",
      "( d",
      "Ġb l",
      "l abel",
      "el se",
      "Ð µ",
      "Ġ( !",
      "iz ed",
      "ize d",
      "( ),",
      "() ,",
      "Ġ ob",
      "Ġo b",
      "Ġ item",
      "Ġit em",
      "Ġi tem",
      "u mp",
      "um p",
      "U R",
      "or n",
      "Ġd on",
      "Ġdo n",
      "S e",
      "m an",
      "ma n",
      "2 7",
      "am ple",
      "amp le",
      "t n",
      "======== ========",
      "H e",
      "gr am",
      "Ġd id",
      "Ġdi d",
      "w n",
      "_ h",
      "i ver",
      "iv er",
      "ive r",
      "Ġs m",
      "Ġth rough",
      "ĠA n",
      "c he",
      "ch e",
      "Ġin v",
      "o use",
      "ou se",
      "ous e",
      "Ġ es",
      "Ġe s",
      "ĠN ew",
      "ex port",
      "m ary",
      "ma ry",
      "u to",
      "ut o",
      "l er",
      "le r",
      "Ġl ast",
      "Ġla st",
      "Ġe vent",
      "Ġeven t",
      "t ry",
      "tr y",
      "ï ¼",
      "i ly",
      "il y",
      "ign ed",
      "in es",
      "ine s",
      "oll ow",
      "ic ense",
      "s ole",
      "so le",
      "l ear",
      "le ar",
      "( int",
      "(i nt",
      "Ġag ain",
      "Ġh igh",
      "ht ml",
      "Ind ex",
      "uth or",
      "Ġ/ **Ċ",
      "Ġ line",
      "Ġl ine",
      "Ġli ne",
      "E vent",
      "_ D",
      "Ġdo es",
      "it ial",
      "Ġc r",
      "ar s",
      "2 8",
      "Ġ tem",
      "Ġt em",
      "Ġte m",
      "ca use",
      "f ace",
      "Ġ `",
      "_ A",
      "B utton",
      "at ure",
      "ect ed",
      "E S",
      "is ter",
      "ist er",
      "ĉ Ċ",
      "Ġbe fore",
      "a le",
      "al e",
      "o ther",
      "ot her",
      "Ġbe cause",
      "r oid",
      "ro id",
      "Ġ ed",
      "Ġe d",
      "i k",
      "r eg",
      "re g",
      "Ġ De",
      "ĠD e",
      "Ġd ist",
      "Ġdis t",
      "Ġdi st",
      "} ,Ċ",
      "Ġst ate",
      "Ġcon s",
      "r int",
      "ri nt",
      "at t",
      "Ġh ere",
      "Ġhe re",
      "Ġher e",
      "in ed",
      "ine d",
      "Ġf inal",
      "Ġ\" \"",
      "K ey",
      "L O",
      "Ġd el",
      "Ġde l",
      "p ty",
      "pt y",
      "th ing",
      "2 6",
      "ĠA nd",
      "ĠAn d",
      "Ġr un",
      "Ġ X",
      "y m",
      ". app",
      "Ġ very",
      "Ġv ery",
      "c es",
      "ce s",
      "_ N",
      "a red",
      "ar ed",
      "are d",
      "w ard",
      "l ist",
      "li st",
      "it ed",
      "ite d",
      "o log",
      "ol og",
      "it ch",
      "Bo x",
      "i fe",
      "if e",
      "3 3",
      "Ġ ac",
      "Ġa c",
      "Ġm odel",
      "Ġmod el",
      "Ġ mon",
      "Ġm on",
      "Ġw ay",
      "le te",
      "let e",
      "Ġc all",
      "Ġ att",
      "Ġat t",
      "Ġc al",
      "v ert",
      "ver t",
      "Ġd ec",
      "Ġde c",
      "le ase",
      "o un",
      "ou n",
      "Ġ} );Ċ",
      "f r",
      "form ation",
      "et ail",
      "eta il",
      "Ġn um",
      "a j",
      "qu ery",
      "que ry",
      "Ġw ell",
      "Ġwe ll",
      "Ġo bject",
      "Ġob ject",
      "ĠA s",
      "Ġyear s",
      "C olor",
      "I S",
      "Ġdef ault",
      "W h",
      "Ġ ins",
      "Ġin s",
      "a int",
      "ain t",
      "Ġjav a",
      "Ġs im",
      "ĠA r",
      "m on",
      "t il",
      "( );čĊ",
      "() ;čĊ",
      ") :",
      "S et",
      "Se t",
      "2 9",
      "at ter",
      "att er",
      "Ġ view",
      "Ġv iew",
      "Ġp res",
      "Ġpr es",
      "Ġpre s",
      "a rray",
      "arr ay",
      "W e",
      "A t",
      "Ġb el",
      "Ġbe l",
      "Ġman y",
      "2 1",
      "M an",
      "e nder",
      "en der",
      "end er",
      "Ġbe ing",
      "Ġg ood",
      "Ġgo od",
      "ĉ ĉĉĉĉĉ",
      "ĉĉ ĉĉĉĉ",
      "ĉĉĉĉ ĉĉ",
      "ĉĉĉ ĉĉĉ",
      "ĉĉĉĉĉ ĉ",
      "ation al",
      "w are",
      ". log",
      ".l og",
      "{ čĊ",
      "Ġ using",
      "Ġus ing",
      "_ B",
      "Ġ: =",
      "_ w",
      "ist s",
      "l ish",
      "li sh",
      "Ġst ud",
      "ĠA l",
      "Ġg u",
      "con fig",
      "ur ing",
      "t ime",
      "ok en",
      "ames pace",
      "Ġre quest",
      "Ġch ild",
      "Ġ Ã",
      "l ob",
      "lo b",
      "Ġ param",
      "Ġp aram",
      "Ġpar am",
      "Ġ }čĊ",
      "Ġ} čĊ",
      "0 1",
      "Ġe cho",
      "f unction",
      "**************** ****************",
      "p s",
      "E lement",
      "al k",
      "lic ation",
      "b y",
      "S ize",
      "raw ing",
      "Ġp erson",
      "Ġper son",
      "Ġ ĠĠĠĠĠĠĠĠĠĠĠĠĠĠĠĠ",
      "ĠĠ ĠĠĠĠĠĠĠĠĠĠĠĠĠĠĠ",
      "ĠĠĠĠ ĠĠĠĠĠĠĠĠĠĠĠĠĠ",
      "ĠĠĠĠĠĠĠĠ ĠĠĠĠĠĠĠĠĠ",
      "ĠĠĠĠĠĠĠĠĠĠĠ ĠĠĠĠĠĠ",
      "ĠĠĠĠĠĠĠĠĠĠĠĠĠĠĠĠ Ġ",
      "ĠĠĠĠĠĠĠĠĠĠĠĠĠĠĠ ĠĠ",
      "ĠĠĠĠĠĠĠĠĠ ĠĠĠĠĠĠĠĠ",
      "ĠĠĠĠĠĠ ĠĠĠĠĠĠĠĠĠĠĠ",
      "ĠĠĠĠĠĠĠĠĠĠĠĠĠ ĠĠĠĠ",
      "\\ n",
      "o bject",
      "ob ject",
      "in ce",
      "E n",
      "F ile",
      "u f",
      "ff ect",
      "A C",
      "Ġst yle",
      "sum mary",
      "Ġ que",
      "Ġqu e",
      "_ r",
      "Ġ ($",
      "Ġ( $",
      "M odel",
      "id ent",
      "ide nt",
      "Ġm ethod",
      "I L",
      "ot t",
      "l ess",
      "le ss",
      "les s",
      "IN G",
      "Ġ ()",
      "Ġ( )",
      "Ġex pect",
      "Ġexp ect",
      "y nc",
      "yn c",
      "p ackage",
      "3 5",
      "ur s",
      "Ġpro t",
      "Ġpr ot",
      ". /",
      "p re",
      "pr e",
      "Ġ )Ċ",
      "Ġ) Ċ",
      "m a",
      "Ġs ur",
      "Ġsu r",
      "Ġf ound",
      "In fo",
      "p ar",
      "im es",
      "ime s",
      ". e",
      "a ins",
      "ain s",
      "Ġp ost",
      "Ġpos t",
      "- d",
      "4 5",
      "ole an",
      "Ġs l",
      "P E",
      "Ġs uch",
      "Ġsu ch",
      "se lect",
      "ain er",
      "Ġth ink",
      "Ġdif fer",
      ". r",
      "/ **Ċ",
      "F F",
      "o ol",
      "pl ate",
      "q ual",
      "qu al",
      "ĠF or",
      "Ġm uch",
      "u c",
      "( new",
      "(n ew",
      "od ule",
      "Ġs om",
      "Ġso m",
      "Ġ http",
      "Ġh ttp",
      "Ġ List",
      "ĠL ist",
      "Ġc ount",
      "Ġin st",
      "Ġins t",
      "ch ar",
      "m it",
      ". id",
      "ak ing",
      "Ġg ener",
      "p x",
      "v ice",
      "3 7",
      "_ data",
      "_d ata",
      "ĠN ULL",
      "} čĊ",
      "i dd",
      "id d",
      "ãĢ Ĥ",
      "Ġm ed",
      "Ġme d",
      "or g",
      "i der",
      "id er",
      "ide r",
      "a che",
      "ac he",
      "ach e",
      "w ork",
      "Ġc heck",
      "we en",
      "Ġ ((",
      "Ġ( (",
      "t he",
      "th e",
      "ant s",
      "> <",
      ". B",
      "- c",
      "Ġop en",
      "Ġ est",
      "Ġe st",
      "Ġes t",
      "ĠĠĠĠ ĠĠĠĠĊ",
      "ĠĠĠĠĠĠĠĠ Ċ",
      "ĠĠĠĠĠĠĠ ĠĊ",
      "Ġn ext",
      "I M",
      "Ñ Ĥ",
      "O T",
      "Ã ³",
      "Ġf ollow",
      "cont ent",
      "Ġ ĠĠĠĠĠĠĠĠĠĠĠ",
      "ĠĠĠĠ ĠĠĠĠĠĠĠĠ",
      "ĠĠĠĠĠĠĠĠ ĠĠĠĠ",
      "ĠĠĠ ĠĠĠĠĠĠĠĠĠ",
      "ĠĠĠĠĠĠĠ ĠĠĠĠĠ",
      "ĠĠĠĠĠĠĠĠĠĠĠ Ġ",
      "ĠĠĠĠĠ ĠĠĠĠĠĠĠ",
      "ĠĠĠĠĠĠĠĠĠ ĠĠĠ",
      "ĠĠĠĠĠĠ ĠĠĠĠĠĠ",
      "Ġin clud",
      "H E",
      "Ġ Res",
      "ĠR es",
      "ĠRe s",
      "Ġh ref",
      "Ð ¸",
      "Ġc ar",
      "ype s",
      "yp es",
      "im age",
      "U n",
      "Ġb ool",
      "Ġbo ol",
      "A D",
      "Ġg ame",
      ".F orm",
      "row s",
      "* /",
      "vel op",
      ".D rawing",
      "Ġp ath",
      "is ion",
      "Ġe ach",
      "ĠP l",
      "_ type",
      "_t ype",
      "P ath",
      "ne ction",
      "Ġ av",
      "Ġa v",
      "' ).",
      "') .",
      "Ġsup port",
      "EN T",
      "r em",
      "re m",
      "\" ).",
      "\") .",
      "Ġ own",
      "Ġo wn",
      "Ġc or",
      "Ġco r",
      "c ount",
      "m iss",
      "u ally",
      "ual ly",
      "Ġm em",
      "Ġme m",
      "s td",
      "st d",
      "i ence",
      "se arch",
      "\" ĊĊ",
      "\"Ċ Ċ",
      "F orm",
      "Ġs ex",
      "Ġse x",
      "e name",
      "en ame",
      "Ġs ign",
      "Ġ et",
      "Ġe t",
      "Ġ ĠĠĠĠĠĠĠĠĠ",
      "ĠĠ ĠĠĠĠĠĠĠĠ",
      "ĠĠĠĠ ĠĠĠĠĠĠ",
      "ĠĠĠĠĠĠĠĠ ĠĠ",
      "ĠĠĠ ĠĠĠĠĠĠĠ",
      "ĠĠĠĠĠĠĠ ĠĠĠ",
      "ĠĠĠĠĠ ĠĠĠĠĠ",
      "ĠĠĠĠĠĠĠĠĠ Ġ",
      "ĠĠĠĠĠĠ ĠĠĠĠ",
      "', '",
      "ĠA pp",
      "Ġth ose",
      "o ff",
      "of f",
      "Ġ err",
      "Ġe rr",
      "Ġs ystem",
      "Ġb est",
      "Ġbe st",
      "c ode",
      "co de",
      "Ġs ame",
      "Ġd i",
      "u ss",
      "us s",
      "Ġc reate",
      "a ther",
      "at her",
      "ath er",
      "A rray",
      ". in",
      "f e",
      "S ervice",
      "U N",
      "at s",
      "Ġ Z",
      "al th",
      "Ġm ade",
      "tr ue",
      "A B",
      "Ġm ark",
      "r id",
      "ri d",
      "if ied",
      ", čĊ",
      "y n",
      "p ress",
      "pr ess",
      "pre ss",
      "Ġg roup",
      "Ġf in",
      "ĠL icense",
      "F ield",
      "e ger",
      "eg er",
      "Ġw orld",
      "in ess",
      "ine ss",
      "ines s",
      "t y",
      "Ġpro cess",
      "( b",
      "Ġ cre",
      "Ġc re",
      "Ġcr e",
      "ar n",
      "iv es",
      "ive s",
      "Ġm ain",
      "ide o",
      "3 6",
      "_ g",
      "A G",
      "val id",
      "im g",
      "P I",
      "Ġc olor",
      "Ġcol or",
      "Ġre port",
      "Ġt ake",
      "r ib",
      "ri b",
      "O M",
      "Ġ day",
      "Ġd ay",
      "Re quest",
      "Ġs k",
      "b ers",
      "ber s",
      "ĉ s",
      ".A dd",
      "o ot",
      "Im age",
      "Ġcom ple",
      "Ġcomp le",
      "ol lection",
      "Ġt op",
      "Ġto p",
      "Ġf ree",
      "A S",
      "D e",
      "Ġ On",
      "ĠO n",
      "I G",
      "9 0",
      "et a",
      "D ate",
      "Ġ action",
      "Ġa ction",
      "Ġact ion",
      "3 4",
      "O ver",
      "it or",
      "ĠĠĠĠ ĠĠĠĠĠĠĠĠĠĠĠĠĠĠĠĠĠĠĠĠĠĠĠĠĠĠĠĠĠĠĠ",
      "ĠĠĠĠĠĠĠĠ ĠĠĠĠĠĠĠĠĠĠĠĠĠĠĠĠĠĠĠĠĠĠĠĠĠĠĠ",
      "ĠĠĠ ĠĠĠĠĠĠĠĠĠĠĠĠĠĠĠĠĠĠĠĠĠĠĠĠĠĠĠĠĠĠĠĠ",
      "ĠĠĠĠĠĠĠĠĠĠĠĠĠĠĠĠ ĠĠĠĠĠĠĠĠĠĠĠĠĠĠĠĠĠĠĠ",
      "ĠĠĠĠĠĠĠĠĠĠĠĠĠĠĠĠĠĠĠ ĠĠĠĠĠĠĠĠĠĠĠĠĠĠĠĠ",
      "ĠĠĠĠĠĠĠĠĠĠĠĠĠĠĠĠĠĠĠĠĠĠĠ ĠĠĠĠĠĠĠĠĠĠĠĠ",
      "ĠĠĠĠĠĠĠĠĠĠĠĠĠĠĠĠĠĠĠĠĠĠĠĠĠĠĠĠĠĠĠĠ ĠĠĠ",
      "ĠĠĠĠĠĠĠĠĠĠĠĠĠĠĠĠĠĠĠĠĠĠĠĠĠĠĠ ĠĠĠĠĠĠĠĠ",
      "ĠĠĠĠĠĠĠĠĠĠĠĠĠĠĠĠĠĠĠĠĠĠĠĠĠĠĠĠĠĠĠ ĠĠĠĠ",
      "ĠĠĠĠĠĠĠĠĠĠĠĠ ĠĠĠĠĠĠĠĠĠĠĠĠĠĠĠĠĠĠĠĠĠĠĠ",
      "n ot",
      "Ġ index",
      "Ġind ex",
      "h er",
      "he r",
      "i con",
      "ic on",
      "O n",
      "; čĊčĊ",
      ";čĊ čĊ",
      "iv ity",
      "m and",
      "man d",
      "ma nd",
      ".W indows",
      "O L",
      "Ġre al",
      "Ġm ax",
      "l and",
      ". ...",
      ".. ..",
      "... .",
      "r aph",
      "ra ph",
      "Ġb uild",
      "Ġbu ild",
      "l eg",
      "le g",
      "ass word",
      "? ĊĊ",
      "âĢ ¦",
      "o ok",
      "u ck",
      "uc k",
      "Ġm essage",
      "t est",
      "te st",
      "iv ers",
      "iver s",
      "3 8",
      "Ġ input",
      "Ġin put",
      "Ġ art",
      "Ġar t",
      "Ġbet ween",
      "G et",
      "en ter",
      "ent er",
      "g round",
      "gr ound",
      "e ne",
      "en e",
      "Ã ¡",
      ".l ength",
      "N ode",
      "( i",
      "C lass"
    ]
  }
}
